#ifndef MODEL_H
#define MODEL_H

const unsigned char model_tflite[] = {
  0x1c, 0x00, 0x00, 0x00, 0x54, 0x46, 0x4c, 0x33, 0x14, 0x00, 0x20, 0x00, 0x04, 0x00, 0x08, 0x00, 0x0c, 0x00, 0x10, 0x00, 0x14, 0x00, 0x00, 0x00, 0x18, 0x00, 0x1c, 0x00, 0x14, 0x00, 0x00, 0x00, 0x03, 0x00, 0x00, 0x00, 0x18, 0x00, 0x00, 0x00, 0x2c, 0x00, 0x00, 0x00, 0xd8, 0x00, 0x00, 0x00, 0x2c, 0x00, 0x00, 0x00, 0x80, 0x00, 0x00, 0x00, 0x78, 0x00, 0x00, 0x00, 0x05, 0x00, 0x00, 0x00, 0x94, 0x06, 0x00, 0x00, 0xc8, 0x05, 0x00, 0x00, 0x6c, 0x03, 0x00, 0x00, 0xb8, 0x02, 0x00, 0x00, 0x9c, 0x01, 0x00, 0x00, 0x01, 0x00, 0x00, 0x00, 0xd0, 0x00, 0x00, 0x00, 0x14, 0x00, 0x00, 0x00, 0xcc, 0x20, 0x00, 0x00, 0xc8, 0x20, 0x00, 0x00, 0xa0, 0x1f, 0x00, 0x00, 0xe8, 0x1e, 0x00, 0x00, 0x8c, 0x15, 0x00, 0x00, 0x10, 0x14, 0x00, 0x00, 0x94, 0x13, 0x00, 0x00, 0x30, 0x13, 0x00, 0x00, 0xc4, 0x12, 0x00, 0x00, 0x74, 0x07, 0x00, 0x00, 0x00, 0x07, 0x00, 0x00, 0xa0, 0x20, 0x00, 0x00, 0x9c, 0x20, 0x00, 0x00, 0x98, 0x20, 0x00, 0x00, 0x94, 0x20, 0x00, 0x00, 0x90, 0x20, 0x00, 0x00, 0x8c, 0x20, 0x00, 0x00, 0x88, 0x20, 0x00, 0x00, 0x84, 0x20, 0x00, 0x00, 0x3c, 0x00, 0x00, 0x00, 0x00, 0x00, 0x00, 0x00, 0x01, 0x00, 0x00, 0x00, 0x0c, 0x00, 0x00, 0x00, 0x08, 0x00, 0x0c, 0x00, 0x04, 0x00, 0x08, 0x00, 0x08, 0x00, 0x00, 0x00, 0x08, 0x00, 0x00, 0x00, 0x13, 0x00, 0x00, 0x00, 0x13, 0x00, 0x00, 0x00, 0x6d, 0x69, 0x6e, 0x5f, 0x72, 0x75, 0x6e, 0x74, 0x69, 0x6d, 0x65, 0x5f, 0x76, 0x65, 0x72, 0x73, 0x69, 0x6f, 0x6e, 0x00, 0xe6, 0xe0, 0xff, 0xff, 0x04, 0x00, 0x00, 0x00, 0x10, 0x00, 0x00, 0x00, 0x31, 0x2e, 0x31, 0x34, 0x2e, 0x30, 0x00, 0x00, 0x00, 0x00, 0x00, 0x00, 0x00, 0x00, 0x00, 0x00, 0x0f, 0x00, 0x00, 0x00, 0x4d, 0x4c, 0x49, 0x52, 0x20, 0x43, 0x6f, 0x6e, 0x76, 0x65, 0x72, 0x74, 0x65, 0x64, 0x2e, 0x00, 0x00, 0x00, 0x0e, 0x00, 0x18, 0x00, 0x04, 0x00, 0x08, 0x00, 0x0c, 0x00, 0x10, 0x00, 0x14, 0x00, 0x0e, 0x00, 0x00, 0x00, 0x14, 0x00, 0x00, 0x00, 0x5c, 0x00, 0x00, 0x00, 0x60, 0x00, 0x00, 0x00, 0x64, 0x00, 0x00, 0x00, 0x84, 0x00, 0x00, 0x00, 0x12, 0x00, 0x00, 0x00, 0xa4, 0x1f, 0x00, 0x00, 0xec, 0x1e, 0x00, 0x00, 0x34, 0x1e, 0x00, 0x00, 0xb8, 0x1d, 0x00, 0x00, 0x5c, 0x14, 0x00, 0x00, 0xe0, 0x12, 0x00, 0x00, 0x60, 0x12, 0x00, 0x00, 0x08, 0x12, 0x00, 0x00, 0xa0, 0x11, 0x00, 0x00, 0x4c, 0x06, 0x00, 0x00, 0x78, 0x05, 0x00, 0x00, 0xac, 0x04, 0x00, 0x00, 0x74, 0x03, 0x00, 0x00, 0xe0, 0x02, 0x00, 0x00, 0x48, 0x02, 0x00, 0x00, 0x94, 0x01, 0x00, 0x00, 0xe0, 0x00, 0x00, 0x00, 0x74, 0x00, 0x00, 0x00, 0x01, 0x00, 0x00, 0x00, 0x00, 0x00, 0x00, 0x00, 0x01, 0x00, 0x00, 0x00, 0x11, 0x00, 0x00, 0x00, 0x08, 0x00, 0x00, 0x00, 0xe0, 0x04, 0x00, 0x00, 0x18, 0x04, 0x00, 0x00, 0x04, 0x03, 0x00, 0x00, 0x6c, 0x02, 0x00, 0x00, 0xe0, 0x01, 0x00, 0x00, 0x10, 0x01, 0x00, 0x00, 0x78, 0x00, 0x00, 0x00, 0x10, 0x00, 0x00, 0x00, 0x04, 0x00, 0x00, 0x00, 0x6d, 0x61, 0x69, 0x6e, 0x00, 0x00, 0x00, 0x00, 0x46, 0xfe, 0xff, 0xff, 0x04, 0x00, 0x00, 0x00, 0x10, 0x00, 0x00, 0x00, 0x04, 0x00, 0x00, 0x00, 0x01, 0x00, 0x00, 0x00, 0x11, 0x00, 0x00, 0x00, 0x01, 0x00, 0x00, 0x00, 0x10, 0x00, 0x00, 0x00, 0x24, 0xfb, 0xff, 0xff, 0x0e, 0x00, 0x00, 0x00, 0x00, 0x00, 0x00, 0x0e, 0x01, 0x00, 0x00, 0x00, 0x22, 0xe1, 0xff, 0xff, 0x10, 0x00, 0x00, 0x00, 0x12, 0x00, 0x00, 0x00, 0x14, 0x00, 0x00, 0x00, 0x20, 0x00, 0x00, 0x00, 0x02, 0x00, 0x00, 0x00, 0x01, 0x00, 0x00, 0x00, 0x01, 0x00, 0x00, 0x00, 0x08, 0x00, 0x00, 0x00, 0x49, 0x64, 0x65, 0x6e, 0x74, 0x69, 0x74, 0x79, 0x00, 0x00, 0x00, 0x00, 0x04, 0xe1, 0xff, 0xff, 0x26, 0xfe, 0xff, 0xff, 0x00, 0x00, 0x00, 0x08, 0x03, 0x00, 0x00, 0x00, 0x18, 0x00, 0x00, 0x00, 0x0c, 0x00, 0x00, 0x00, 0x04, 0x00, 0x00, 0x00, 0x20, 0xe1, 0xff, 0xff, 0x01, 0x00, 0x00, 0x00, 0x10, 0x00, 0x00, 0x00, 0x03, 0x00, 0x00, 0x00, 0x0f, 0x00, 0x00, 0x00, 0x09, 0x00, 0x00, 0x00, 0x06, 0x00, 0x00, 0x00, 0x8a, 0xe1, 0xff, 0xff, 0x10, 0x00, 0x00, 0x00, 0x11, 0x00, 0x00, 0x00, 0x14, 0x00, 0x00, 0x00, 0x4c, 0x00, 0x00, 0x00, 0x02, 0x00, 0x00, 0x00, 0x01, 0x00, 0x00, 0x00, 0x01, 0x00, 0x00, 0x00, 0x34, 0x00, 0x00, 0x00, 0x73, 0x65, 0x71, 0x75, 0x65, 0x6e, 0x74, 0x69, 0x61, 0x6c, 0x2f, 0x64, 0x65, 0x6e, 0x73, 0x65, 0x5f, 0x31, 0x2f, 0x4d, 0x61, 0x74, 0x4d, 0x75, 0x6c, 0x3b, 0x73, 0x65, 0x71, 0x75, 0x65, 0x6e, 0x74, 0x69, 0x61, 0x6c, 0x2f, 0x64, 0x65, 0x6e, 0x73, 0x65, 0x5f, 0x31, 0x2f, 0x42, 0x69, 0x61, 0x73, 0x41, 0x64, 0x64, 0x00, 0x00, 0x00, 0x00, 0x98, 0xe1, 0xff, 0xff, 0x16, 0xfd, 0xff, 0xff, 0x00, 0x00, 0x00, 0x08, 0x03, 0x00, 0x00, 0x00, 0x24, 0x00, 0x00, 0x00, 0x18, 0x00, 0x00, 0x00, 0x0c, 0x00, 0x00, 0x00, 0x00, 0x00, 0x06, 0x00, 0x08, 0x00, 0x07, 0x00, 0x06, 0x00, 0x00, 0x00, 0x00, 0x00, 0x00, 0x01, 0x01, 0x00, 0x00, 0x00, 0x0f, 0x00, 0x00, 0x00, 0x03, 0x00, 0x00, 0x00, 0x0e, 0x00, 0x00, 0x00, 0x08, 0x00, 0x00, 0x00, 0x05, 0x00, 0x00, 0x00, 0x3c, 0xfc, 0xff, 0xff, 0x09, 0x00, 0x00, 0x00, 0x00, 0x00, 0x00, 0x09, 0x01, 0x00, 0x00, 0x00, 0x3a, 0xe2, 0xff, 0xff, 0x10, 0x00, 0x00, 0x00, 0x10, 0x00, 0x00, 0x00, 0x14, 0x00, 0x00, 0x00, 0x5c, 0x00, 0x00, 0x00, 0x02, 0x00, 0x00, 0x00, 0x01, 0x00, 0x00, 0x00, 0x08, 0x00, 0x00, 0x00, 0x46, 0x00, 0x00, 0x00, 0x73, 0x65, 0x71, 0x75, 0x65, 0x6e, 0x74, 0x69, 0x61, 0x6c, 0x2f, 0x64, 0x65, 0x6e, 0x73, 0x65, 0x2f, 0x4d, 0x61, 0x74, 0x4d, 0x75, 0x6c, 0x3b, 0x73, 0x65, 0x71, 0x75, 0x65, 0x6e, 0x74, 0x69, 0x61, 0x6c, 0x2f, 0x64, 0x65, 0x6e, 0x73, 0x65, 0x2f, 0x42, 0x69, 0x61, 0x73, 0x41, 0x64, 0x64, 0x3b, 0x73, 0x65, 0x71, 0x75, 0x65, 0x6e, 0x74, 0x69, 0x61, 0x6c, 0x2f, 0x64, 0x65, 0x6e, 0x73, 0x65, 0x2f, 0x52, 0x65, 0x6c, 0x75, 0x00, 0x00, 0xb0, 0xe2, 0xff, 0xff, 0x00, 0x00, 0x0a, 0x00, 0x10, 0x00, 0x04, 0x00, 0x08, 0x00, 0x0c, 0x00, 0x0a, 0x00, 0x00, 0x00, 0x02, 0x00, 0x00, 0x00, 0x10, 0x00, 0x00, 0x00, 0x04, 0x00, 0x00, 0x00, 0x01, 0x00, 0x00, 0x00, 0x0e, 0x00, 0x00, 0x00, 0x02, 0x00, 0x00, 0x00, 0x0d, 0x00, 0x00, 0x00, 0x07, 0x00, 0x00, 0x00, 0xec, 0xfc, 0xff, 0xff, 0x16, 0x00, 0x00, 0x00, 0x00, 0x00, 0x00, 0x16, 0x01, 0x00, 0x00, 0x00, 0xea, 0xe2, 0xff, 0xff, 0x10, 0x00, 0x00, 0x00, 0x0f, 0x00, 0x00, 0x00, 0x14, 0x00, 0x00, 0x00, 0x30, 0x00, 0x00, 0x00, 0x02, 0x00, 0x00, 0x00, 0x01, 0x00, 0x00, 0x00, 0x58, 0x00, 0x00, 0x00, 0x1a, 0x00, 0x00, 0x00, 0x73, 0x65, 0x71, 0x75, 0x65, 0x6e, 0x74, 0x69, 0x61, 0x6c, 0x2f, 0x66, 0x6c, 0x61, 0x74, 0x74, 0x65, 0x6e, 0x2f, 0x52, 0x65, 0x73, 0x68, 0x61, 0x70, 0x65, 0x00, 0x00, 0x34, 0xe3, 0xff, 0xff, 0x00, 0x00, 0x0e, 0x00, 0x18, 0x00, 0x08, 0x00, 0x0c, 0x00, 0x10, 0x00, 0x07, 0x00, 0x14, 0x00, 0x0e, 0x00, 0x00, 0x00, 0x00, 0x00, 0x00, 0x05, 0x01, 0x00, 0x00, 0x00, 0x2c, 0x00, 0x00, 0x00, 0x20, 0x00, 0x00, 0x00, 0x04, 0x00, 0x00, 0x00, 0x5a, 0xfe, 0xff, 0xff, 0x02, 0x00, 0x00, 0x00, 0x02, 0x00, 0x00, 0x00, 0x02, 0x00, 0x00, 0x00, 0x02, 0x00, 0x00, 0x00, 0x00, 0x00, 0x00, 0x01, 0x01, 0x00, 0x00, 0x00, 0x0d, 0x00, 0x00, 0x00, 0x01, 0x00, 0x00, 0x00, 0x0c, 0x00, 0x00, 0x00, 0x7e, 0xe3, 0xff, 0xff, 0x10, 0x00, 0x00, 0x00, 0x0e, 0x00, 0x00, 0x00, 0x1c, 0x00, 0x00, 0x00, 0x40, 0x00, 0x00, 0x00, 0x04, 0x00, 0x00, 0x00, 0x01, 0x00, 0x00, 0x00, 0x0b, 0x00, 0x00, 0x00, 0x01, 0x00, 0x00, 0x00, 0x08, 0x00, 0x00, 0x00, 0x22, 0x00, 0x00, 0x00, 0x73, 0x65, 0x71, 0x75, 0x65, 0x6e, 0x74, 0x69, 0x61, 0x6c, 0x2f, 0x6d, 0x61, 0x78, 0x5f, 0x70, 0x6f, 0x6f, 0x6c, 0x69, 0x6e, 0x67, 0x32, 0x64, 0x5f, 0x31, 0x2f, 0x4d, 0x61, 0x78, 0x50, 0x6f, 0x6f, 0x6c, 0x00, 0x00, 0x80, 0xe3, 0xff, 0xff, 0x3a, 0xfe, 0xff, 0xff, 0x00, 0x00, 0x00, 0x01, 0x24, 0x00, 0x00, 0x00, 0x18, 0x00, 0x00, 0x00, 0x04, 0x00, 0x00, 0x00, 0x2c, 0xfe, 0xff, 0xff, 0x01, 0x00, 0x00, 0x00, 0x01, 0x00, 0x00, 0x00, 0x00, 0x00, 0x01, 0x01, 0x01, 0x00, 0x00, 0x00, 0x0c, 0x00, 0x00, 0x00, 0x03, 0x00, 0x00, 0x00, 0x0b, 0x00, 0x00, 0x00, 0x03, 0x00, 0x00, 0x00, 0x01, 0x00, 0x00, 0x00, 0x0e, 0xe4, 0xff, 0xff, 0x10, 0x00, 0x00, 0x00, 0x0d, 0x00, 0x00, 0x00, 0x1c, 0x00, 0x00, 0x00, 0xb0, 0x00, 0x00, 0x00, 0x04, 0x00, 0x00, 0x00, 0x01, 0x00, 0x00, 0x00, 0x16, 0x00, 0x00, 0x00, 0x03, 0x00, 0x00, 0x00, 0x08, 0x00, 0x00, 0x00, 0x93, 0x00, 0x00, 0x00, 0x73, 0x65, 0x71, 0x75, 0x65, 0x6e, 0x74, 0x69, 0x61, 0x6c, 0x2f, 0x63, 0x6f, 0x6e, 0x76, 0x32, 0x64, 0x5f, 0x31, 0x2f, 0x52, 0x65, 0x6c, 0x75, 0x3b, 0x73, 0x65, 0x71, 0x75, 0x65, 0x6e, 0x74, 0x69, 0x61, 0x6c, 0x2f, 0x63, 0x6f, 0x6e, 0x76, 0x32, 0x64, 0x5f, 0x31, 0x2f, 0x42, 0x69, 0x61, 0x73, 0x41, 0x64, 0x64, 0x3b, 0x73, 0x65, 0x71, 0x75, 0x65, 0x6e, 0x74, 0x69, 0x61, 0x6c, 0x2f, 0x63, 0x6f, 0x6e, 0x76, 0x32, 0x64, 0x2f, 0x43, 0x6f, 0x6e, 0x76, 0x32, 0x44, 0x3b, 0x73, 0x65, 0x71, 0x75, 0x65, 0x6e, 0x74, 0x69, 0x61, 0x6c, 0x2f, 0x63, 0x6f, 0x6e, 0x76, 0x32, 0x64, 0x5f, 0x31, 0x2f, 0x43, 0x6f, 0x6e, 0x76, 0x32, 0x44, 0x3b, 0x73, 0x65, 0x71, 0x75, 0x65, 0x6e, 0x74, 0x69, 0x61, 0x6c, 0x2f, 0x63, 0x6f, 0x6e, 0x76, 0x32, 0x64, 0x5f, 0x31, 0x2f, 0x42, 0x69, 0x61, 0x73, 0x41, 0x64, 0x64, 0x2f, 0x52, 0x65, 0x61, 0x64, 0x56, 0x61, 0x72, 0x69, 0x61, 0x62, 0x6c, 0x65, 0x4f, 0x70, 0x00, 0xd8, 0xe4, 0xff, 0xff, 0x00, 0x00, 0x0e, 0x00, 0x1a, 0x00, 0x08, 0x00, 0x0c, 0x00, 0x10, 0x00, 0x07, 0x00, 0x14, 0x00, 0x0e, 0x00, 0x00, 0x00, 0x00, 0x00, 0x00, 0x05, 0x01, 0x00, 0x00, 0x00, 0x3c, 0x00, 0x00, 0x00, 0x30, 0x00, 0x00, 0x00, 0x14, 0x00, 0x00, 0x00, 0x00, 0x00, 0x0e, 0x00, 0x18, 0x00, 0x17, 0x00, 0x10, 0x00, 0x0c, 0x00, 0x08, 0x00, 0x04, 0x00, 0x0e, 0x00, 0x00, 0x00, 0x02, 0x00, 0x00, 0x00, 0x02, 0x00, 0x00, 0x00, 0x02, 0x00, 0x00, 0x00, 0x02, 0x00, 0x00, 0x00, 0x00, 0x00, 0x00, 0x01, 0x01, 0x00, 0x00, 0x00, 0x0b, 0x00, 0x00, 0x00, 0x01, 0x00, 0x00, 0x00, 0x0a, 0x00, 0x00, 0x00, 0x44, 0xff, 0xff, 0xff, 0x11, 0x00, 0x00, 0x00, 0x00, 0x00, 0x00, 0x11, 0x01, 0x00, 0x00, 0x00, 0x42, 0xe5, 0xff, 0xff, 0x10, 0x00, 0x00, 0x00, 0x0c, 0x00, 0x00, 0x00, 0x1c, 0x00, 0x00, 0x00, 0x40, 0x00, 0x00, 0x00, 0x04, 0x00, 0x00, 0x00, 0x01, 0x00, 0x00, 0x00, 0x18, 0x00, 0x00, 0x00, 0x05, 0x00, 0x00, 0x00, 0x08, 0x00, 0x00, 0x00, 0x20, 0x00, 0x00, 0x00, 0x73, 0x65, 0x71, 0x75, 0x65, 0x6e, 0x74, 0x69, 0x61, 0x6c, 0x2f, 0x6d, 0x61, 0x78, 0x5f, 0x70, 0x6f, 0x6f, 0x6c, 0x69, 0x6e, 0x67, 0x32, 0x64, 0x2f, 0x4d, 0x61, 0x78, 0x50, 0x6f, 0x6f, 0x6c, 0x00, 0x00, 0x00, 0x00, 0x9c, 0xe5, 0xff, 0xff, 0x00, 0x00, 0x0e, 0x00, 0x14, 0x00, 0x00, 0x00, 0x08, 0x00, 0x0c, 0x00, 0x07, 0x00, 0x10, 0x00, 0x0e, 0x00, 0x00, 0x00, 0x00, 0x00, 0x00, 0x01, 0x30, 0x00, 0x00, 0x00, 0x24, 0x00, 0x00, 0x00, 0x10, 0x00, 0x00, 0x00, 0x0c, 0x00, 0x10, 0x00, 0x0e, 0x00, 0x04, 0x00, 0x08, 0x00, 0x0f, 0x00, 0x0c, 0x00, 0x00, 0x00, 0x01, 0x00, 0x00, 0x00, 0x01, 0x00, 0x00, 0x00, 0x00, 0x00, 0x01, 0x01, 0x01, 0x00, 0x00, 0x00, 0x0a, 0x00, 0x00, 0x00, 0x03, 0x00, 0x00, 0x00, 0x00, 0x00, 0x00, 0x00, 0x04, 0x00, 0x00, 0x00, 0x02, 0x00, 0x00, 0x00, 0x0c, 0x00, 0x10, 0x00, 0x0b, 0x00, 0x00, 0x00, 0x0c, 0x00, 0x04, 0x00, 0x0c, 0x00, 0x00, 0x00, 0x03, 0x00, 0x00, 0x00, 0x00, 0x00, 0x00, 0x03, 0x01, 0x00, 0x00, 0x00, 0x0a, 0xe6, 0xff, 0xff, 0x10, 0x00, 0x00, 0x00, 0x0b, 0x00, 0x00, 0x00, 0x1c, 0x00, 0x00, 0x00, 0x90, 0x00, 0x00, 0x00, 0x04, 0x00, 0x00, 0x00, 0x01, 0x00, 0x00, 0x00, 0x30, 0x00, 0x00, 0x00, 0x0a, 0x00, 0x00, 0x00, 0x08, 0x00, 0x00, 0x00, 0x72, 0x00, 0x00, 0x00, 0x73, 0x65, 0x71, 0x75, 0x65, 0x6e, 0x74, 0x69, 0x61, 0x6c, 0x2f, 0x63, 0x6f, 0x6e, 0x76, 0x32, 0x64, 0x2f, 0x52, 0x65, 0x6c, 0x75, 0x3b, 0x73, 0x65, 0x71, 0x75, 0x65, 0x6e, 0x74, 0x69, 0x61, 0x6c, 0x2f, 0x63, 0x6f, 0x6e, 0x76, 0x32, 0x64, 0x2f, 0x42, 0x69, 0x61, 0x73, 0x41, 0x64, 0x64, 0x3b, 0x73, 0x65, 0x71, 0x75, 0x65, 0x6e, 0x74, 0x69, 0x61, 0x6c, 0x2f, 0x63, 0x6f, 0x6e, 0x76, 0x32, 0x64, 0x2f, 0x43, 0x6f, 0x6e, 0x76, 0x32, 0x44, 0x3b, 0x73, 0x65, 0x71, 0x75, 0x65, 0x6e, 0x74, 0x69, 0x61, 0x6c, 0x2f, 0x63, 0x6f, 0x6e, 0x76, 0x32, 0x64, 0x2f, 0x42, 0x69, 0x61, 0x73, 0x41, 0x64, 0x64, 0x2f, 0x52, 0x65, 0x61, 0x64, 0x56, 0x61, 0x72, 0x69, 0x61, 0x62, 0x6c, 0x65, 0x4f, 0x70, 0x00, 0x00, 0x5c, 0xe6, 0xff, 0xff, 0x86, 0xe7, 0xff, 0xff, 0x04, 0x00, 0x00, 0x00, 0x20, 0x00, 0x00, 0x00, 0x2d, 0x91, 0x3b, 0xbf, 0x18, 0x82, 0x6c, 0x3f, 0x42, 0x28, 0xb8, 0xbe, 0xf4, 0x13, 0x84, 0x3e, 0x02, 0x77, 0x02, 0xbf, 0x25, 0x43, 0xb6, 0x3d, 0x42, 0x2e, 0xf8, 0x3e, 0x7b, 0x48, 0x31, 0x3f, 0xda, 0xe6, 0xff, 0xff, 0x10, 0x00, 0x00, 0x00, 0x0a, 0x00, 0x00, 0x00, 0x14, 0x00, 0x00, 0x00, 0x30, 0x00, 0x00, 0x00, 0x02, 0x00, 0x00, 0x00, 0x01, 0x00, 0x00, 0x00, 0x08, 0x00, 0x00, 0x00, 0x19, 0x00, 0x00, 0x00, 0x73, 0x65, 0x71, 0x75, 0x65, 0x6e, 0x74, 0x69, 0x61, 0x6c, 0x2f, 0x64, 0x65, 0x6e, 0x73, 0x65, 0x5f, 0x31, 0x2f, 0x4d, 0x61, 0x74, 0x4d, 0x75, 0x6c, 0x00, 0x00, 0x00, 0xcc, 0xe6, 0xff, 0xff, 0xf6, 0xe7, 0xff, 0xff, 0x04, 0x00, 0x00, 0x00, 0x00, 0x0b, 0x00, 0x00, 0x80, 0xdd, 0x41, 0x3e, 0x13, 0x9b, 0x7a, 0xbe, 0x82, 0xf1, 0x46, 0xbe, 0xff, 0xe9, 0x66, 0x3e, 0xa0, 0xa1, 0x3e, 0xbe, 0x82, 0x33, 0x39, 0x3d, 0x7a, 0xf8, 0x97, 0xbe, 0xf9, 0x38, 0x2d, 0x3e, 0x74, 0x6b, 0x0e, 0x3e, 0xfd, 0xb3, 0x90, 0xbc, 0x88, 0x8d, 0x33, 0x3d, 0x90, 0x89, 0x73, 0x3e, 0xc4, 0xc9, 0x68, 0x3e, 0x91, 0x0d, 0x44, 0x3e, 0x4d, 0x56, 0x2f, 0x3d, 0xb0, 0xc8, 0xea, 0xbd, 0x09, 0xe6, 0xa2, 0x3c, 0xe5, 0x46, 0x4c, 0x3e, 0x3c, 0xc0, 0xae, 0x3c, 0x2b, 0x5e, 0x67, 0x3e, 0xdc, 0x60, 0x30, 0xbe, 0xd9, 0x64, 0x51, 0xbe, 0xbc, 0xef, 0x1e, 0xbe, 0xbe, 0x7f, 0x46, 0x3e, 0xaa, 0x3b, 0x9e, 0xbd, 0xaf, 0x30, 0x94, 0x3d, 0x31, 0xef, 0x7e, 0xbc, 0x67, 0x6c, 0x9c, 0x3e, 0xa2, 0x4f, 0x75, 0xbe, 0xcc, 0xf3, 0x30, 0xbe, 0x7f, 0xe8, 0x33, 0xbd, 0x3b, 0x30, 0x82, 0xbe, 0x6e, 0xf9, 0x3b, 0xbe, 0xae, 0x68, 0x85, 0xbd, 0x07, 0x62, 0x10, 0x3e, 0x2a, 0x82, 0x92, 0x3e, 0xe6, 0x88, 0x65, 0xbd, 0x2f, 0x14, 0x71, 0x3d, 0x8e, 0x50, 0x02, 0xbe, 0xa7, 0x0d, 0x31, 0x3e, 0xab, 0x93, 0xbb, 0x3d, 0x5f, 0x5a, 0xcd, 0xbd, 0x3c, 0xb9, 0x26, 0xbd, 0xb1, 0x50, 0xe0, 0xbd, 0x9e, 0xb1, 0x4d, 0x3d, 0x02, 0x1d, 0x14, 0xbe, 0xab, 0x2c, 0x56, 0x3e, 0x97, 0xac, 0x77, 0xbe, 0x4b, 0x1b, 0x7c, 0xbe, 0x6f, 0x61, 0x0e, 0xbe, 0xb2, 0xb1, 0xa6, 0xbd, 0x0c, 0x18, 0x1f, 0x3d, 0x0a, 0xbb, 0x82, 0x3e, 0x5b, 0x3e, 0x1f, 0xbe, 0x18, 0x40, 0x27, 0x3e, 0x21, 0xce, 0x8f, 0x3e, 0x3a, 0xe8, 0xb5, 0x3d, 0xe4, 0x24, 0xb9, 0x3d, 0x1e, 0x66, 0x3b, 0x3c, 0x32, 0xb7, 0x85, 0xbe, 0x81, 0x09, 0x3f, 0xbe, 0xac, 0x9d, 0xd6, 0xbd, 0x2c, 0xb3, 0x49, 0xbc, 0x25, 0xef, 0x96, 0x3e, 0x43, 0x22, 0xfb, 0xbd, 0xe7, 0x7e, 0x2c, 0x3e, 0x01, 0x3f, 0xc6, 0x3d, 0x77, 0x28, 0x02, 0x3e, 0x75, 0x04, 0x75, 0xbe, 0x39, 0xcd, 0x81, 0x3e, 0x92, 0x71, 0x27, 0xbe, 0xfa, 0xac, 0xe9, 0x3b, 0x73, 0x29, 0xf0, 0x3b, 0x9f, 0xac, 0x12, 0x3d, 0x86, 0xe5, 0x86, 0xbc, 0x4f, 0x9e, 0xf0, 0x3c, 0x8d, 0x68, 0x1a, 0xbe, 0x68, 0xfb, 0x9c, 0x3e, 0x99, 0xbb, 0x60, 0x3e, 0xc8, 0xdf, 0x61, 0x3e, 0xf3, 0xb8, 0x3d, 0xbe, 0x0f, 0x8c, 0x00, 0xbe, 0xef, 0x62, 0xcd, 0x3d, 0x24, 0x61, 0x66, 0xbe, 0xf0, 0xb4, 0x1a, 0x3d, 0x04, 0xd9, 0xb5, 0xbb, 0xdb, 0x36, 0x55, 0xbe, 0x27, 0xb4, 0x34, 0xbe, 0x14, 0x6a, 0x2b, 0xbe, 0xdf, 0x22, 0x5b, 0x3e, 0x87, 0x99, 0xb5, 0xbd, 0x2c, 0x55, 0x07, 0xbe, 0xec, 0xfa, 0x86, 0xbd, 0xba, 0x84, 0xdf, 0x3d, 0x31, 0x64, 0x04, 0x3d, 0x75, 0xbd, 0xd2, 0xbd, 0xea, 0x80, 0x7c, 0x3e, 0x04, 0x0a, 0x47, 0x3e, 0xc9, 0xea, 0x63, 0x3e, 0x4a, 0xb9, 0x8f, 0x3d, 0x40, 0xaf, 0x62, 0x3e, 0x89, 0x0b, 0x46, 0x3e, 0x99, 0xfb, 0x01, 0x3e, 0xdb, 0xa2, 0x2e, 0xbe, 0x19, 0xd3, 0x85, 0x3e, 0x63, 0xa2, 0xed, 0xbd, 0xc7, 0xcc, 0x1e, 0x3d, 0x2b, 0x35, 0xb7, 0xbe, 0xf9, 0x27, 0xb3, 0x3c, 0x6a, 0x3e, 0x83, 0x3e, 0xa1, 0x58, 0xfc, 0x3c, 0x17, 0xe5, 0xd7, 0x3c, 0xe5, 0xf4, 0x07, 0xbd, 0xaa, 0x75, 0xdd, 0x3c, 0xa0, 0xc7, 0x2a, 0x3e, 0xab, 0x0c, 0x64, 0xbe, 0xb6, 0xe5, 0x6e, 0xbe, 0xda, 0xeb, 0xf1, 0xbc, 0x89, 0x0a, 0xe0, 0xbd, 0x17, 0x61, 0x14, 0xbc, 0xce, 0xa5, 0x9a, 0x3c, 0xe6, 0x57, 0x5a, 0xbe, 0x5b, 0x5a, 0x2c, 0x3e, 0x54, 0xad, 0x7f, 0x3d, 0x6a, 0xca, 0x09, 0xbe, 0x36, 0x7b, 0x8b, 0x3d, 0xcf, 0xc9, 0xf0, 0x3d, 0x20, 0xad, 0x9f, 0x3e, 0x0a, 0xaa, 0x60, 0x3d, 0xea, 0x8e, 0x9b, 0xbe, 0xe3, 0xa7, 0xec, 0xbd, 0x60, 0x4b, 0x33, 0xbc, 0xf5, 0x41, 0xde, 0x3c, 0xb6, 0xe7, 0x0d, 0x3e, 0xd3, 0xba, 0x46, 0x3e, 0xe1, 0x9a, 0x08, 0x3e, 0xf5, 0x9d, 0x3f, 0x3e, 0xb5, 0x02, 0x7c, 0x3d, 0x4a, 0xe4, 0x07, 0x3c, 0x2e, 0xfa, 0x8c, 0xbd, 0x38, 0xd1, 0x83, 0x3d, 0x7a, 0x35, 0x6d, 0x3d, 0xe3, 0xd7, 0xb2, 0xbc, 0xdc, 0x8c, 0x31, 0xbe, 0xde, 0x40, 0x16, 0xbe, 0x2e, 0x80, 0xee, 0xbd, 0xbf, 0x1a, 0x49, 0x3e, 0x68, 0x74, 0x78, 0x3e, 0x33, 0x32, 0x1d, 0xbd, 0x8a, 0xc3, 0x08, 0x3e, 0x2b, 0xc3, 0x05, 0x3e, 0x89, 0xd4, 0x3f, 0xbe, 0xf8, 0xa5, 0x36, 0xbe, 0xe9, 0xdd, 0xa9, 0xbd, 0x33, 0xd0, 0x82, 0x3e, 0x57, 0xbd, 0x35, 0xbe, 0x41, 0x91, 0x87, 0x3d, 0x29, 0x32, 0x82, 0xbe, 0x98, 0x25, 0x63, 0xbe, 0xcf, 0x94, 0x10, 0xbe, 0x4b, 0xbb, 0xe2, 0x3d, 0x5c, 0x89, 0x33, 0xbe, 0xd8, 0x8e, 0x51, 0x3b, 0xe4, 0x89, 0x0a, 0xbd, 0xbf, 0x7d, 0x97, 0xbe, 0x48, 0x10, 0x4c, 0xbe, 0x6c, 0x27, 0x5f, 0xbe, 0xff, 0xd8, 0xaf, 0x3b, 0x83, 0xc0, 0x5a, 0x3e, 0x62, 0x31, 0xf3, 0xbd, 0x0e, 0x24, 0x25, 0xbc, 0xdb, 0x2f, 0xaf, 0x3d, 0xb9, 0x61, 0x21, 0xbe, 0xeb, 0x19, 0xf1, 0xbd, 0xb1, 0x95, 0x11, 0xbd, 0x52, 0xd6, 0x52, 0xbe, 0x6e, 0x4c, 0x21, 0xbe, 0x5b, 0x84, 0x6e, 0xbe, 0x1d, 0x0e, 0x21, 0x3d, 0xb2, 0x15, 0xff, 0xbd, 0x4e, 0xa2, 0xa3, 0x3d, 0x8d, 0xb0, 0x4e, 0x3e, 0x9b, 0xc1, 0x43, 0xbd, 0x7d, 0xce, 0x1b, 0x3e, 0xed, 0x52, 0xd7, 0x3d, 0x5d, 0xff, 0x0c, 0xbe, 0x55, 0x47, 0x85, 0x3e, 0x21, 0x80, 0xb2, 0xbd, 0x09, 0xf9, 0x4e, 0x3e, 0xfb, 0xd7, 0x25, 0xbe, 0x55, 0xd1, 0x2e, 0x3e, 0x6f, 0x6f, 0x8e, 0xbd, 0x52, 0xa3, 0x02, 0xbd, 0x2d, 0x29, 0xf2, 0x3d, 0xdc, 0x9b, 0xea, 0x3d, 0x4e, 0xde, 0x47, 0xbd, 0x06, 0x58, 0xa5, 0x3d, 0xa6, 0x6c, 0xd8, 0x3c, 0x96, 0x52, 0x94, 0xbd, 0x44, 0x24, 0xd3, 0xbd, 0x0b, 0xc4, 0x41, 0x3d, 0x18, 0xdc, 0x30, 0xbe, 0x2a, 0x59, 0x00, 0x3e, 0x7b, 0x97, 0x30, 0xbd, 0x00, 0x2f, 0x31, 0xbe, 0x7d, 0x2e, 0x31, 0xbe, 0x01, 0x3e, 0x1f, 0x3e, 0xec, 0xcb, 0x81, 0xbe, 0xde, 0x45, 0xe4, 0xbd, 0x56, 0xd7, 0x12, 0xbe, 0x13, 0xf1, 0x1c, 0xbd, 0x61, 0x46, 0x4b, 0x3e, 0xc9, 0x7d, 0x37, 0x3e, 0x24, 0x00, 0x87, 0x3e, 0x4a, 0x27, 0xb1, 0x3c, 0xe0, 0x1b, 0x19, 0xbe, 0xf2, 0xe4, 0xec, 0xba, 0x92, 0xc8, 0xa1, 0x3e, 0x10, 0x90, 0x31, 0x3e, 0xf7, 0x44, 0x6f, 0x3e, 0x36, 0xd5, 0x07, 0x3e, 0xf5, 0x3a, 0x06, 0x3e, 0x90, 0x8b, 0x72, 0xbd, 0x1a, 0x0d, 0x21, 0x3b, 0xf7, 0xb9, 0x8b, 0x3e, 0x7d, 0xe2, 0x12, 0xbe, 0xf7, 0xf7, 0x16, 0x3e, 0x2b, 0x19, 0xb3, 0xbd, 0xd1, 0xba, 0x96, 0x3d, 0x2a, 0xaf, 0x63, 0xbe, 0x2f, 0xbe, 0x55, 0x3c, 0x88, 0xba, 0x1a, 0xbe, 0x09, 0x19, 0x5f, 0x3e, 0x44, 0xfd, 0xe2, 0x3d, 0x77, 0x49, 0xbf, 0xbd, 0x0d, 0x86, 0xef, 0xbd, 0x97, 0xd5, 0x2d, 0x3c, 0xc0, 0x55, 0x22, 0x3e, 0xdd, 0x51, 0x89, 0x3e, 0xfd, 0xaa, 0xe0, 0xbd, 0x33, 0x96, 0x9b, 0x3e, 0x26, 0x48, 0x67, 0x3e, 0xfc, 0xf6, 0x45, 0x3e, 0x63, 0x95, 0x75, 0xbd, 0x0a, 0x7d, 0x83, 0x3e, 0x44, 0x7f, 0x61, 0xbd, 0xc4, 0x31, 0x3b, 0x3e, 0xf1, 0xe5, 0x39, 0xbc, 0x3a, 0xb5, 0xa3, 0x3e, 0x23, 0x6b, 0xb2, 0x3e, 0xbf, 0xcb, 0x11, 0xbe, 0xa9, 0x35, 0x82, 0xbd, 0x41, 0x17, 0xdd, 0x3d, 0x8f, 0x39, 0x4e, 0x3e, 0xb6, 0x66, 0x66, 0x3e, 0x35, 0x0e, 0xc0, 0xbd, 0x4c, 0x15, 0x16, 0x3e, 0x60, 0x4a, 0x0b, 0xbd, 0x4b, 0x3c, 0x66, 0xbe, 0xc4, 0x1a, 0xc3, 0xbd, 0x30, 0xca, 0xa2, 0x3e, 0xbf, 0x00, 0xc8, 0x3d, 0xbb, 0xa8, 0x6c, 0xbc, 0x97, 0xac, 0x8c, 0x3d, 0x96, 0x79, 0x4f, 0xbe, 0xde, 0xf5, 0x11, 0x3e, 0x00, 0x74, 0xc6, 0xbc, 0xf3, 0x50, 0xc4, 0xbc, 0xad, 0x54, 0x50, 0xbd, 0x2b, 0xa5, 0x82, 0xbe, 0x57, 0xe9, 0xd3, 0xbd, 0x60, 0xfa, 0x81, 0xbb, 0xd7, 0xed, 0xe4, 0xbc, 0xc0, 0xf2, 0xf8, 0xbc, 0xb9, 0x44, 0xe2, 0xbd, 0x67, 0x0d, 0xe0, 0xbd, 0x14, 0x9d, 0x92, 0x3b, 0xe2, 0xfe, 0xdf, 0xbd, 0x54, 0x7f, 0x62, 0x3e, 0x42, 0x5e, 0x2b, 0xbe, 0x0a, 0x3e, 0xd4, 0x3d, 0x38, 0xe9, 0x33, 0xbe, 0x3c, 0x2b, 0x25, 0xbe, 0x3f, 0x31, 0xe6, 0xbb, 0x06, 0x55, 0x07, 0xbe, 0x0e, 0x57, 0xb8, 0xbd, 0x73, 0x79, 0x38, 0xbe, 0xdf, 0x5b, 0x08, 0xbe, 0x02, 0x79, 0x49, 0x3d, 0x2b, 0x65, 0x83, 0x3d, 0x41, 0xf0, 0x18, 0x3e, 0x6e, 0x81, 0x62, 0xbe, 0xf0, 0x16, 0x5c, 0x3e, 0x2e, 0x58, 0xeb, 0xbd, 0xb9, 0x35, 0x56, 0xbe, 0x3b, 0x31, 0x66, 0xbe, 0xa9, 0x1b, 0x7e, 0xbe, 0x7b, 0x6a, 0x5b, 0x3e, 0x7f, 0x6b, 0x98, 0x3d, 0x49, 0x59, 0x22, 0x3e, 0x91, 0x64, 0x68, 0x3e, 0x30, 0x52, 0x95, 0x3d, 0x41, 0xbb, 0x8d, 0xbd, 0xfd, 0x89, 0x5d, 0x3c, 0xb2, 0x64, 0x24, 0xbe, 0xd0, 0x48, 0x27, 0xbd, 0xb4, 0x8d, 0x5d, 0xbe, 0xf1, 0x02, 0xb4, 0x3d, 0xb0, 0xa1, 0x83, 0x3d, 0x93, 0xb8, 0x10, 0xbe, 0xd8, 0x88, 0xd8, 0x3d, 0x41, 0xde, 0xb5, 0x3d, 0x05, 0x31, 0x65, 0x3d, 0xe4, 0x00, 0x5e, 0xbe, 0xf5, 0x01, 0x6c, 0x3e, 0x5d, 0xdc, 0xdc, 0x3d, 0x0d, 0x61, 0xdd, 0xbd, 0x22, 0xbd, 0x11, 0xbe, 0xfd, 0x5c, 0x63, 0xbe, 0x39, 0x60, 0x3a, 0x3e, 0xfe, 0xf1, 0xad, 0x3d, 0xc0, 0x6e, 0x32, 0xbe, 0x8c, 0xc6, 0xfe, 0xbd, 0xaa, 0x82, 0x6b, 0xbd, 0x19, 0xa8, 0xa1, 0xba, 0xad, 0xe4, 0x0f, 0xbe, 0xdc, 0x00, 0xbe, 0xbd, 0xaf, 0x48, 0x95, 0xbc, 0x88, 0x97, 0x25, 0xbe, 0xfc, 0xfc, 0x3f, 0x3e, 0x8a, 0xe0, 0x5e, 0xbe, 0x03, 0x3c, 0xce, 0xbd, 0xb0, 0x58, 0x62, 0x3e, 0x29, 0x51, 0xdd, 0x3d, 0x76, 0xaf, 0x91, 0xbd, 0xe2, 0x9c, 0x6f, 0x3d, 0x7f, 0x1d, 0x1a, 0x3e, 0xe8, 0x65, 0x3f, 0xbe, 0xe0, 0x78, 0xaf, 0xbd, 0x2c, 0x2f, 0x49, 0x3e, 0x3f, 0xec, 0x06, 0x3e, 0x9a, 0x48, 0x39, 0xbe, 0xa3, 0x12, 0xa8, 0xbd, 0xf1, 0x17, 0xda, 0xbd, 0x4f, 0x0d, 0x18, 0xbb, 0xc8, 0xc1, 0x46, 0x3e, 0x11, 0xec, 0x22, 0xbe, 0xf8, 0x7b, 0xad, 0xbd, 0xb7, 0x1b, 0x66, 0xbe, 0xd2, 0x05, 0x10, 0xbe, 0x32, 0x96, 0xd8, 0x3d, 0x9a, 0x84, 0x4c, 0x3e, 0x87, 0x01, 0x31, 0xbd, 0x81, 0x0b, 0xb5, 0xbe, 0xc9, 0xbb, 0xa2, 0x3d, 0x5e, 0xc0, 0x85, 0x3e, 0xf5, 0x2b, 0x71, 0x3e, 0x12, 0xb7, 0x90, 0xbe, 0x68, 0xa0, 0x70, 0x3c, 0x23, 0x97, 0x3d, 0xbc, 0x1b, 0xf2, 0x8b, 0x3d, 0xd4, 0x7c, 0xaf, 0x3d, 0x7f, 0x24, 0x51, 0x3e, 0x21, 0x84, 0x6e, 0x3e, 0x84, 0xbd, 0x74, 0xbe, 0xc8, 0xcd, 0x36, 0x3e, 0x5d, 0xa0, 0x19, 0xbe, 0x7c, 0x43, 0x5f, 0x3e, 0xc4, 0x0e, 0x20, 0xbd, 0xbd, 0xa8, 0xcf, 0xbd, 0x3a, 0xed, 0x01, 0x3e, 0xf4, 0x04, 0xef, 0xbd, 0x23, 0xe3, 0x15, 0x3e, 0x11, 0x91, 0x26, 0xbe, 0x4c, 0xf9, 0x77, 0x3d, 0x5e, 0xac, 0xd7, 0x3d, 0x47, 0x82, 0x8d, 0xbe, 0xa0, 0xb8, 0x78, 0x3e, 0x8e, 0x0c, 0x9a, 0xbd, 0x89, 0xe5, 0x9f, 0x3c, 0x1b, 0xf0, 0x41, 0x3d, 0xc6, 0x2d, 0xc8, 0x3d, 0xa6, 0x46, 0xdd, 0x3d, 0xa3, 0xc0, 0xfd, 0xbd, 0xf6, 0x0e, 0x4d, 0x3e, 0x96, 0x9c, 0x81, 0x3e, 0x1c, 0x18, 0x87, 0x3e, 0xfd, 0xa4, 0x88, 0x3e, 0x92, 0xf1, 0x6a, 0xbd, 0x15, 0xc0, 0x27, 0x3e, 0x11, 0xbb, 0xb6, 0xbc, 0x39, 0xb3, 0x94, 0xbe, 0x5b, 0x4f, 0x12, 0xbe, 0x97, 0xb2, 0x2a, 0x3d, 0xe2, 0x22, 0xd5, 0x3d, 0xcc, 0x21, 0xed, 0xbd, 0x04, 0xec, 0x02, 0x3e, 0xd6, 0x2d, 0x9d, 0x3d, 0x2f, 0xde, 0x09, 0xbe, 0x99, 0x54, 0x3b, 0x3d, 0xf5, 0x84, 0x38, 0x3e, 0xf6, 0x11, 0x9b, 0x3d, 0x88, 0xfd, 0x22, 0xbe, 0x26, 0x42, 0x9e, 0x3d, 0x9f, 0x3e, 0xea, 0xbc, 0x1c, 0xe2, 0x0b, 0xbe, 0x0d, 0xa2, 0xac, 0x3e, 0xaf, 0x51, 0x3d, 0x3d, 0x38, 0x0e, 0x33, 0xbc, 0x1e, 0x1b, 0x13, 0x3d, 0xe2, 0x75, 0x9e, 0xbe, 0x79, 0x3a, 0xf1, 0xbd, 0x49, 0x4e, 0xa9, 0x3c, 0xfc, 0x0b, 0x6a, 0x3e, 0x74, 0x24, 0xc0, 0xbd, 0xd5, 0x13, 0x80, 0x3e, 0x72, 0xa5, 0x70, 0x3e, 0x9c, 0xaf, 0x0f, 0xbc, 0x0f, 0xd2, 0x5a, 0xbe, 0xf7, 0x8d, 0x00, 0x3d, 0xab, 0x60, 0x06, 0x3e, 0x3d, 0x5f, 0x2a, 0x3e, 0xfd, 0xb5, 0xb4, 0x3c, 0x19, 0x18, 0xa9, 0x3d, 0xa7, 0x05, 0x9f, 0x3e, 0x6e, 0x60, 0x4d, 0x3e, 0x4a, 0xdc, 0x14, 0x3e, 0xd0, 0xa5, 0xf0, 0x3d, 0xfe, 0x1e, 0xa1, 0x3e, 0xa8, 0x92, 0xf6, 0xbd, 0x2d, 0x98, 0x61, 0x3e, 0x2e, 0x83, 0x20, 0x3e, 0x95, 0x39, 0x32, 0x3e, 0xba, 0x44, 0x30, 0xbc, 0x90, 0xeb, 0x36, 0x3e, 0x57, 0x84, 0x70, 0x3e, 0x1c, 0x0f, 0x7e, 0x3e, 0xa9, 0x49, 0x22, 0x3e, 0x5b, 0xfb, 0x05, 0x3e, 0xb2, 0xed, 0xbf, 0x3c, 0x74, 0x8f, 0x5b, 0x3d, 0xd5, 0xf1, 0xdd, 0x3d, 0x18, 0xae, 0x43, 0x3e, 0x36, 0x13, 0xb8, 0xbd, 0xcc, 0x0b, 0xfa, 0x3d, 0x68, 0xa8, 0x10, 0xbb, 0xf2, 0x39, 0x29, 0xbe, 0x77, 0x6f, 0x3c, 0x3e, 0xbc, 0xec, 0x0e, 0x3e, 0xdd, 0x79, 0xf8, 0xbd, 0xae, 0x1e, 0x35, 0x3e, 0x22, 0x1b, 0x80, 0xbd, 0xda, 0xbf, 0xc2, 0xbd, 0xce, 0x38, 0x0e, 0x3e, 0xab, 0xd5, 0x0b, 0x3e, 0x25, 0x94, 0x8f, 0xbd, 0x71, 0xd8, 0x37, 0xbe, 0xc6, 0x26, 0x6a, 0x3e, 0x65, 0x25, 0x21, 0x3e, 0x4d, 0x0a, 0x5f, 0x3d, 0xee, 0x6a, 0x2c, 0x3d, 0x04, 0x89, 0x13, 0x3e, 0xb3, 0x97, 0x76, 0x3d, 0xbe, 0xbb, 0x63, 0xbc, 0xca, 0x09, 0x20, 0x3d, 0x5c, 0x03, 0xf7, 0xbd, 0x9a, 0xf1, 0xbe, 0xbd, 0x41, 0x75, 0x0b, 0xbe, 0xdc, 0xd0, 0x81, 0xbe, 0x1c, 0x55, 0x18, 0x3d, 0x09, 0x9f, 0x33, 0x3e, 0x39, 0x85, 0x50, 0x3e, 0x7b, 0x5d, 0x78, 0x3e, 0x8a, 0xef, 0x9a, 0xbe, 0x4d, 0x25, 0x0e, 0x3e, 0x98, 0x69, 0xd0, 0xbd, 0x14, 0xa1, 0x23, 0xbe, 0x72, 0x9f, 0x47, 0xbe, 0xe7, 0x17, 0x37, 0xbe, 0x33, 0xe3, 0xa5, 0x3e, 0x37, 0xae, 0x0d, 0xbe, 0xeb, 0xd4, 0x89, 0x3d, 0x08, 0x18, 0x76, 0xbe, 0x3b, 0x01, 0x33, 0xbe, 0x0d, 0x1e, 0x81, 0x3e, 0xd0, 0x1c, 0x5d, 0x3d, 0x99, 0xa1, 0xd4, 0x3d, 0xf7, 0xf3, 0x05, 0x3d, 0x36, 0xd3, 0x41, 0xbe, 0xd7, 0x5d, 0x85, 0xbe, 0x4b, 0x8a, 0x71, 0x3e, 0x92, 0x33, 0x4c, 0x3d, 0xe3, 0xe4, 0x27, 0xbd, 0x9d, 0x3f, 0xff, 0x3d, 0xb2, 0x86, 0x07, 0xbe, 0x26, 0xc6, 0x29, 0xbe, 0x34, 0x4d, 0x57, 0x3e, 0xdc, 0x88, 0x05, 0x3e, 0x82, 0xf9, 0xfb, 0xbc, 0xa7, 0x03, 0xde, 0x3d, 0xfc, 0x46, 0x22, 0xbe, 0xa0, 0xf7, 0x45, 0xbd, 0xe2, 0x1f, 0x45, 0xbe, 0xa3, 0x4b, 0xa8, 0x3d, 0xc6, 0xa9, 0xe3, 0x3d, 0x60, 0x1d, 0xd4, 0x3d, 0xca, 0x04, 0x98, 0x3d, 0x4b, 0x35, 0x2b, 0xbe, 0xe0, 0x78, 0x86, 0x3e, 0xdc, 0x20, 0x37, 0x3e, 0xa4, 0xca, 0x9a, 0xbd, 0x09, 0xec, 0x20, 0xbc, 0x37, 0x41, 0x58, 0x3e, 0x9a, 0xb2, 0xa4, 0xbd, 0x18, 0x2e, 0x3b, 0x3e, 0x2f, 0x7a, 0x6d, 0x3d, 0xf3, 0x67, 0x5b, 0xbe, 0xf6, 0x41, 0x2e, 0x3e, 0xfd, 0xe8, 0x60, 0x3d, 0xf5, 0xdb, 0x7b, 0xbe, 0x52, 0x8a, 0x52, 0xbe, 0xd0, 0xa0, 0x0b, 0xbe, 0xcb, 0xef, 0x65, 0xbe, 0x89, 0x9e, 0x44, 0x3e, 0x07, 0xf6, 0xc3, 0x3c, 0xeb, 0x73, 0xe8, 0x3d, 0x9e, 0xb7, 0xf9, 0x3d, 0x48, 0xd3, 0x4e, 0xbe, 0x7f, 0x3d, 0x51, 0xbe, 0x0e, 0x94, 0x25, 0x3d, 0xa5, 0xf3, 0xe4, 0x3d, 0x5a, 0x4a, 0x5b, 0x3d, 0x78, 0xf8, 0x77, 0x3e, 0xfe, 0x93, 0x40, 0xbd, 0x56, 0x1c, 0xa8, 0x3d, 0x57, 0x5e, 0x0c, 0x3e, 0x0e, 0x25, 0x8b, 0x3e, 0xfb, 0xd0, 0x88, 0xbe, 0x60, 0xf1, 0xba, 0x3d, 0x28, 0xce, 0xc1, 0xbc, 0x46, 0x33, 0x28, 0xbe, 0xac, 0xa3, 0x3e, 0x3d, 0xf1, 0x63, 0x54, 0xbe, 0xd4, 0x14, 0x20, 0xbe, 0x5f, 0x87, 0xa7, 0xbd, 0x6d, 0x3d, 0x5f, 0xbe, 0xbb, 0xa9, 0x2d, 0x3d, 0x29, 0x84, 0x4d, 0x3e, 0xd4, 0xb2, 0x26, 0xbd, 0xce, 0x85, 0xab, 0x3d, 0x16, 0x0c, 0x89, 0xbd, 0xa9, 0xfe, 0xcc, 0x3d, 0xb3, 0xb6, 0x29, 0x3e, 0x92, 0xf7, 0x86, 0xbc, 0x98, 0x97, 0x0e, 0x3c, 0x9b, 0x4c, 0xff, 0xbd, 0xb6, 0xf6, 0x2c, 0xbe, 0x14, 0x4d, 0x5d, 0xbe, 0x1d, 0x13, 0x95, 0xbd, 0x14, 0xa2, 0x90, 0x3d, 0xdb, 0xd8, 0x39, 0xbe, 0x05, 0xdb, 0xa8, 0x3d, 0x1a, 0xfc, 0xf9, 0xbd, 0x5d, 0x0f, 0x68, 0x3d, 0xf2, 0x07, 0x77, 0x3e, 0xa0, 0x31, 0x41, 0x3e, 0x38, 0x6a, 0x57, 0x3e, 0x5d, 0xd3, 0x2f, 0x3e, 0xf3, 0x57, 0x53, 0x3e, 0x50, 0x19, 0x7a, 0xbe, 0x99, 0x88, 0x43, 0x3e, 0x7f, 0x92, 0x9c, 0xbe, 0xfe, 0x84, 0x20, 0xbb, 0x59, 0xef, 0x9a, 0xbd, 0x38, 0x92, 0x0f, 0x3e, 0x94, 0x74, 0x85, 0xbd, 0x9f, 0xd9, 0x28, 0xbe, 0xb0, 0xb7, 0x4f, 0x3d, 0x8f, 0xb4, 0xbb, 0x3d, 0xe8, 0xbb, 0x98, 0xbe, 0x18, 0x30, 0x83, 0x3e, 0xd7, 0x74, 0x21, 0xbe, 0x24, 0xe8, 0x49, 0x3d, 0xd2, 0xf0, 0x89, 0x3e, 0xa5, 0xd1, 0xeb, 0xbd, 0x29, 0x9d, 0xf0, 0xbd, 0x47, 0x0d, 0x01, 0x3e, 0xb0, 0x99, 0x08, 0x3e, 0xe4, 0xda, 0xc3, 0xbd, 0x04, 0xf8, 0x17, 0x3e, 0xd6, 0xcf, 0x80, 0x3c, 0x60, 0x66, 0x7f, 0x3d, 0x94, 0x2a, 0x83, 0x3e, 0xbc, 0x9f, 0xcc, 0x3c, 0xb9, 0x61, 0x42, 0xbd, 0x12, 0xea, 0x83, 0xbd, 0xfc, 0x83, 0xa4, 0xbb, 0xb5, 0x87, 0xf6, 0xbd, 0x3a, 0x09, 0xc1, 0x3d, 0xfe, 0xa9, 0x55, 0x3e, 0x26, 0x13, 0xa0, 0xbd, 0x31, 0x87, 0x62, 0x3e, 0xbb, 0x44, 0x27, 0x3e, 0xbd, 0xd3, 0xca, 0x3d, 0x3e, 0x4c, 0xdc, 0xbd, 0xd1, 0x83, 0x38, 0x3d, 0x91, 0xa4, 0xe1, 0x3d, 0xcc, 0x6c, 0x8e, 0xbe, 0x5b, 0xd1, 0x13, 0x3c, 0xda, 0x2f, 0x24, 0x3e, 0xf9, 0xc4, 0x07, 0x3e, 0xa8, 0xa6, 0x63, 0x3e, 0xf2, 0x3c, 0xa2, 0xbd, 0x1e, 0xed, 0x25, 0xbc, 0x6a, 0x1a, 0x70, 0x3e, 0x41, 0xb1, 0x97, 0xbe, 0xb5, 0x63, 0x02, 0x3e, 0x91, 0x10, 0x3d, 0xbe, 0x57, 0x6b, 0xde, 0xbd, 0x02, 0xb5, 0x51, 0xbe, 0x05, 0x51, 0x7b, 0xbe, 0x62, 0xdb, 0x8f, 0x3d, 0x33, 0x08, 0x23, 0x3e, 0x32, 0x43, 0xe6, 0xbd, 0x10, 0x0f, 0x2f, 0xbe, 0x6b, 0xa5, 0xfa, 0x3d, 0xcb, 0xc5, 0xf4, 0xbc, 0x79, 0x52, 0x19, 0xbe, 0x09, 0xb3, 0x4a, 0xbe, 0x4d, 0xe1, 0xc8, 0x3d, 0xd5, 0xbd, 0x2e, 0xbe, 0x50, 0x78, 0x45, 0xbe, 0x6b, 0xbf, 0x7b, 0xbc, 0x7a, 0xe5, 0x5f, 0x3e, 0x7b, 0x70, 0xe1, 0xbd, 0x10, 0x88, 0x45, 0x3e, 0x99, 0x71, 0x45, 0xbe, 0x08, 0xd4, 0x77, 0x3e, 0xf9, 0x99, 0xb3, 0x3d, 0xcf, 0xe1, 0x48, 0xbe, 0x68, 0xd6, 0x97, 0x3e, 0x53, 0x8e, 0x0b, 0x3e, 0x7f, 0x2b, 0xd4, 0xbc, 0xc1, 0x71, 0x32, 0x3e, 0x80, 0xf2, 0xfa, 0xbc, 0xf2, 0x99, 0x4a, 0xbe, 0x0f, 0x2c, 0x39, 0x3d, 0x0b, 0x4f, 0xa5, 0x3e, 0xca, 0x40, 0x19, 0x3e, 0x77, 0x5a, 0xa8, 0xbe, 0x4c, 0x8f, 0x95, 0xbc, 0xaa, 0xf5, 0x92, 0xbe, 0xa6, 0xe8, 0x91, 0x3d, 0x6c, 0x72, 0xaf, 0xb8, 0x33, 0xce, 0x2b, 0x3e, 0x90, 0x95, 0x89, 0x3e, 0xcb, 0xe1, 0x34, 0x3d, 0x3e, 0x89, 0xf1, 0x3b, 0xd3, 0x8b, 0xbb, 0xbd, 0x45, 0x57, 0x23, 0x3d, 0xbb, 0xb7, 0x50, 0xbe, 0x03, 0x60, 0x33, 0xbd, 0xc7, 0x8a, 0x86, 0x3d, 0xfb, 0x13, 0x8f, 0x3e, 0x2c, 0x10, 0x3a, 0xbe, 0xd0, 0xe7, 0x23, 0x3e, 0x3e, 0xb5, 0x24, 0xbe, 0xaf, 0x2f, 0xd0, 0x3d, 0x30, 0xde, 0x41, 0xbe, 0x7c, 0xa9, 0x75, 0xbe, 0xd5, 0x32, 0x62, 0xbe, 0x35, 0x44, 0xed, 0x3d, 0xb9, 0xc0, 0x3a, 0xbe, 0x6e, 0xa9, 0xc9, 0xbb, 0xab, 0xd6, 0x90, 0x3e, 0xa8, 0xf9, 0x47, 0x3d, 0xb3, 0x9a, 0x0f, 0x3c, 0x74, 0x4b, 0x6c, 0x3d, 0xca, 0x72, 0x5d, 0x3e, 0x2f, 0x56, 0x71, 0xbe, 0x8d, 0x87, 0x86, 0xbd, 0x21, 0xe6, 0x61, 0x3e, 0x2c, 0xdc, 0x00, 0xbe, 0x2c, 0x14, 0x81, 0x3e, 0x16, 0x37, 0x02, 0x3e, 0xd9, 0xa4, 0x1a, 0x3e, 0x7f, 0xb2, 0x05, 0xbe, 0x94, 0xa5, 0x7c, 0x3d, 0xdf, 0x3b, 0x25, 0xbe, 0x46, 0x1b, 0x03, 0x3e, 0xb5, 0xe0, 0x44, 0xbe, 0x3f, 0xe6, 0x41, 0x3e, 0x0e, 0xea, 0x6a, 0xbc, 0x6a, 0x4e, 0x43, 0xbe, 0x79, 0xae, 0xa6, 0xbd, 0xcf, 0x3a, 0x91, 0xbb, 0x20, 0x4c, 0x00, 0xb9, 0xf3, 0x7c, 0x2c, 0x3e, 0x80, 0x1b, 0x33, 0x3c, 0x0c, 0x71, 0x46, 0x3e, 0x42, 0x14, 0x4d, 0x3e, 0x0c, 0xa7, 0x20, 0xbe, 0x62, 0xed, 0x51, 0x3d, 0x4e, 0x26, 0xea, 0xbd, 0x2a, 0xf2, 0xff, 0xff, 0x10, 0x00, 0x00, 0x00, 0x09, 0x00, 0x00, 0x00, 0x14, 0x00, 0x00, 0x00, 0x2c, 0x00, 0x00, 0x00, 0x02, 0x00, 0x00, 0x00, 0x08, 0x00, 0x00, 0x00, 0x58, 0x00, 0x00, 0x00, 0x17, 0x00, 0x00, 0x00, 0x73, 0x65, 0x71, 0x75, 0x65, 0x6e, 0x74, 0x69, 0x61, 0x6c, 0x2f, 0x64, 0x65, 0x6e, 0x73, 0x65, 0x2f, 0x4d, 0x61, 0x74, 0x4d, 0x75, 0x6c, 0x00, 0x18, 0xf2, 0xff, 0xff, 0x42, 0xf3, 0xff, 0xff, 0x04, 0x00, 0x00, 0x00, 0x08, 0x00, 0x00, 0x00, 0xff, 0xff, 0xff, 0xff, 0x58, 0x00, 0x00, 0x00, 0x00, 0x00, 0x0e, 0x00, 0x18, 0x00, 0x08, 0x00, 0x07, 0x00, 0x0c, 0x00, 0x10, 0x00, 0x14, 0x00, 0x0e, 0x00, 0x00, 0x00, 0x00, 0x00, 0x00, 0x02, 0x10, 0x00, 0x00, 0x00, 0x08, 0x00, 0x00, 0x00, 0x10, 0x00, 0x00, 0x00, 0x2c, 0x00, 0x00, 0x00, 0x01, 0x00, 0x00, 0x00, 0x02, 0x00, 0x00, 0x00, 0x18, 0x00, 0x00, 0x00, 0x73, 0x65, 0x71, 0x75, 0x65, 0x6e, 0x74, 0x69, 0x61, 0x6c, 0x2f, 0x66, 0x6c, 0x61, 0x74, 0x74, 0x65, 0x6e, 0x2f, 0x43, 0x6f, 0x6e, 0x73, 0x74, 0x00, 0x00, 0x00, 0x00, 0x80, 0xf2, 0xff, 0xff, 0xaa, 0xf3, 0xff, 0xff, 0x04, 0x00, 0x00, 0x00, 0x04, 0x00, 0x00, 0x00, 0xb6, 0x45, 0xb2, 0xbc, 0xe2, 0xf2, 0xff, 0xff, 0x10, 0x00, 0x00, 0x00, 0x07, 0x00, 0x00, 0x00, 0x10, 0x00, 0x00, 0x00, 0x3c, 0x00, 0x00, 0x00, 0x01, 0x00, 0x00, 0x00, 0x01, 0x00, 0x00, 0x00, 0x29, 0x00, 0x00, 0x00, 0x73, 0x65, 0x71, 0x75, 0x65, 0x6e, 0x74, 0x69, 0x61, 0x6c, 0x2f, 0x64, 0x65, 0x6e, 0x73, 0x65, 0x5f, 0x31, 0x2f, 0x42, 0x69, 0x61, 0x73, 0x41, 0x64, 0x64, 0x2f, 0x52, 0x65, 0x61, 0x64, 0x56, 0x61, 0x72, 0x69, 0x61, 0x62, 0x6c, 0x65, 0x4f, 0x70, 0x00, 0x00, 0x00, 0xe0, 0xf2, 0xff, 0xff, 0x0a, 0xf4, 0xff, 0xff, 0x04, 0x00, 0x00, 0x00, 0x20, 0x00, 0x00, 0x00, 0xdb, 0x6b, 0x38, 0x3c, 0x87, 0x7f, 0xf2, 0xbb, 0x70, 0x03, 0x31, 0x3d, 0xd3, 0xb9, 0x5a, 0xbc, 0xc7, 0xff, 0xc2, 0x3c, 0x3e, 0x8f, 0xc3, 0xbc, 0x3d, 0x27, 0x94, 0x3a, 0xb8, 0x7c, 0x29, 0xbc, 0x5e, 0xf3, 0xff, 0xff, 0x10, 0x00, 0x00, 0x00, 0x06, 0x00, 0x00, 0x00, 0x10, 0x00, 0x00, 0x00, 0x38, 0x00, 0x00, 0x00, 0x01, 0x00, 0x00, 0x00, 0x08, 0x00, 0x00, 0x00, 0x27, 0x00, 0x00, 0x00, 0x73, 0x65, 0x71, 0x75, 0x65, 0x6e, 0x74, 0x69, 0x61, 0x6c, 0x2f, 0x64, 0x65, 0x6e, 0x73, 0x65, 0x2f, 0x42, 0x69, 0x61, 0x73, 0x41, 0x64, 0x64, 0x2f, 0x52, 0x65, 0x61, 0x64, 0x56, 0x61, 0x72, 0x69, 0x61, 0x62, 0x6c, 0x65, 0x4f, 0x70, 0x00, 0x58, 0xf3, 0xff, 0xff, 0x82, 0xf4, 0xff, 0xff, 0x04, 0x00, 0x00, 0x00, 0x20, 0x01, 0x00, 0x00, 0xb2, 0xa0, 0x49, 0x3c, 0xf2, 0xa8, 0x73, 0xbe, 0xbe, 0x5b, 0x8b, 0x3e, 0xd4, 0x44, 0x51, 0x3e, 0x92, 0x5c, 0x00, 0x3d, 0x99, 0xfe, 0x46, 0x3e, 0x51, 0x25, 0x27, 0xbe, 0xe2, 0x47, 0x8c, 0x3d, 0x92, 0xc5, 0xc7, 0xbb, 0x55, 0x56, 0x9d, 0xbd, 0x49, 0x3b, 0x94, 0xbe, 0x42, 0x39, 0xee, 0xbc, 0x57, 0xcf, 0x70, 0x3b, 0x1d, 0xce, 0x3d, 0xbe, 0x2e, 0x4e, 0x97, 0xbe, 0xd2, 0x96, 0x51, 0x3d, 0x68, 0x4f, 0xc3, 0x3d, 0x3c, 0x4a, 0x81, 0xbe, 0x1f, 0xac, 0x93, 0x3e, 0x84, 0xb3, 0xf6, 0xbc, 0xa0, 0x1f, 0x3c, 0x3c, 0xfa, 0xd4, 0x90, 0x3e, 0xbe, 0x61, 0x6f, 0x3e, 0x51, 0x7b, 0x80, 0x3c, 0x1b, 0x73, 0x99, 0x3e, 0x82, 0x5e, 0xdc, 0x3d, 0xcc, 0xa8, 0x43, 0xbe, 0xb0, 0xda, 0xc9, 0x3d, 0x45, 0xec, 0xa0, 0x3b, 0xba, 0xfe, 0x7d, 0x3d, 0x69, 0x67, 0xe4, 0xbd, 0x62, 0x3f, 0xa0, 0xbe, 0x98, 0xf8, 0x93, 0xbd, 0xd2, 0x02, 0x0b, 0x3e, 0xf6, 0xce, 0x3f, 0xbe, 0x4d, 0x24, 0x0f, 0x3e, 0x6c, 0x04, 0xc4, 0x3d, 0xe9, 0x1d, 0x9c, 0xbe, 0x7a, 0xab, 0x93, 0xbe, 0x80, 0xeb, 0xb2, 0x3e, 0x37, 0xc2, 0x1a, 0xbe, 0x2e, 0xd1, 0x27, 0x3e, 0x3c, 0x02, 0xbc, 0x3e, 0xe7, 0xb2, 0xa1, 0xbe, 0x7f, 0xf2, 0x4c, 0x3d, 0xa5, 0xdb, 0x3f, 0xbe, 0x0c, 0xb5, 0x91, 0x3e, 0x62, 0xe1, 0xb4, 0x3e, 0x8d, 0xb4, 0x29, 0x3d, 0x0e, 0xde, 0x5c, 0x3e, 0x5d, 0xea, 0x71, 0x3e, 0x3b, 0x1c, 0x31, 0xbe, 0x82, 0x27, 0x72, 0x3e, 0xbe, 0xe0, 0xc4, 0x3e, 0x22, 0xb5, 0x84, 0xbe, 0xfa, 0x17, 0x8c, 0xbe, 0x41, 0x17, 0x29, 0x3e, 0x98, 0x45, 0x85, 0xbc, 0x4c, 0x8d, 0x36, 0x3e, 0x4f, 0xa6, 0x84, 0xbe, 0x56, 0x26, 0x7b, 0xbe, 0xb1, 0xe2, 0x4f, 0x3e, 0x35, 0x17, 0x33, 0x3e, 0x9f, 0x08, 0x5d, 0xbe, 0x23, 0x18, 0x79, 0x3e, 0x07, 0x8c, 0xe9, 0xbd, 0x90, 0x87, 0x76, 0x3e, 0x8c, 0x17, 0x00, 0x3e, 0x28, 0xdc, 0x0f, 0x3e, 0x95, 0x10, 0x77, 0xbe, 0x84, 0xa0, 0xfe, 0x3d, 0x1c, 0x15, 0x49, 0xbe, 0xd6, 0xf4, 0xff, 0xff, 0x10, 0x00, 0x00, 0x00, 0x05, 0x00, 0x00, 0x00, 0x1c, 0x00, 0x00, 0x00, 0x38, 0x00, 0x00, 0x00, 0x04, 0x00, 0x00, 0x00, 0x08, 0x00, 0x00, 0x00, 0x03, 0x00, 0x00, 0x00, 0x03, 0x00, 0x00, 0x00, 0x01, 0x00, 0x00, 0x00, 0x18, 0x00, 0x00, 0x00, 0x73, 0x65, 0x71, 0x75, 0x65, 0x6e, 0x74, 0x69, 0x61, 0x6c, 0x2f, 0x63, 0x6f, 0x6e, 0x76, 0x32, 0x64, 0x2f, 0x43, 0x6f, 0x6e, 0x76, 0x32, 0x44, 0x00, 0x00, 0x00, 0x00, 0xd0, 0xf4, 0xff, 0xff, 0xfa, 0xf5, 0xff, 0xff, 0x04, 0x00, 0x00, 0x00, 0x00, 0x09, 0x00, 0x00, 0x2b, 0xb9, 0x15, 0xbc, 0x52, 0x02, 0x06, 0x3e, 0xac, 0xde, 0xde, 0xbc, 0xd5, 0x65, 0x43, 0xbd, 0x93, 0xc1, 0x4e, 0x3e, 0x1f, 0x0c, 0x20, 0xbd, 0x97, 0x6e, 0x1b, 0x3d, 0x31, 0xe7, 0xb7, 0x3d, 0xa3, 0xd5, 0x2c, 0xbd, 0x8a, 0x09, 0x51, 0x3d, 0x71, 0x52, 0x7a, 0x3e, 0x79, 0x67, 0x31, 0x3c, 0x23, 0x68, 0x6c, 0x3e, 0x19, 0x55, 0x21, 0xbd, 0x68, 0xf1, 0x12, 0x3b, 0xba, 0x91, 0x99, 0x3d, 0xdb, 0x10, 0x88, 0xbd, 0xaf, 0x6b, 0x03, 0xbe, 0xe5, 0x41, 0x3a, 0x3e, 0xc1, 0xf8, 0x9a, 0x3d, 0xb0, 0xf3, 0x5d, 0xbd, 0x16, 0x69, 0x12, 0xbe, 0xe7, 0x68, 0xb3, 0xbd, 0x76, 0x1b, 0xb7, 0xbc, 0x32, 0x1c, 0x1f, 0x3e, 0x8c, 0x6d, 0x1a, 0x3e, 0x9a, 0xeb, 0xf7, 0xbd, 0x01, 0x47, 0x11, 0x3e, 0xa7, 0x21, 0x53, 0x3d, 0x24, 0x69, 0x1f, 0xbe, 0x4d, 0xd4, 0xb9, 0x3c, 0x55, 0x0c, 0x7d, 0x3d, 0x80, 0x3f, 0xd4, 0xbc, 0xc5, 0xd8, 0x2c, 0x3e, 0xe3, 0xfb, 0x81, 0x3e, 0x9c, 0x96, 0x54, 0x3e, 0xb5, 0xe5, 0xaa, 0x3e, 0x29, 0xd5, 0x17, 0x3d, 0xb5, 0x75, 0x1a, 0x3e, 0x2c, 0xb6, 0xb3, 0x3d, 0x51, 0xc8, 0x94, 0xbc, 0xab, 0x71, 0x95, 0xbd, 0x61, 0xda, 0x01, 0xbe, 0xdc, 0xee, 0x82, 0x3e, 0x08, 0xbe, 0x7e, 0x3e, 0x7d, 0xdc, 0x72, 0xbe, 0x4e, 0x95, 0x36, 0x3e, 0xc3, 0x7d, 0xd4, 0xbd, 0xdc, 0xc2, 0x87, 0xbc, 0xd4, 0x57, 0x0e, 0x3d, 0x75, 0x56, 0xf4, 0x3d, 0x21, 0x55, 0xe0, 0xbd, 0x6a, 0xb7, 0xe9, 0x3d, 0xd3, 0xc3, 0x26, 0xbd, 0xed, 0xa2, 0xab, 0x3d, 0x38, 0xea, 0xbb, 0xbc, 0x9e, 0xaa, 0xd4, 0xbd, 0x04, 0x13, 0xe7, 0xbd, 0x29, 0x05, 0x54, 0x3e, 0xab, 0xd3, 0xc0, 0x3d, 0xc9, 0x9c, 0x88, 0x3e, 0xc3, 0x4c, 0x25, 0xbe, 0x81, 0xc1, 0x82, 0xbd, 0x33, 0x84, 0xbd, 0x3d, 0x3b, 0x22, 0x2d, 0xbd, 0xac, 0x48, 0x2f, 0x3b, 0x8a, 0xb1, 0xca, 0xbd, 0x33, 0x58, 0x7e, 0x3d, 0x47, 0x36, 0x33, 0x3d, 0x93, 0xf8, 0x1d, 0x3e, 0x5a, 0xe1, 0x97, 0xbd, 0xe0, 0xa6, 0x1e, 0x3e, 0x95, 0xfe, 0xb9, 0xbd, 0xa8, 0x13, 0x83, 0x3d, 0x49, 0x8c, 0x0d, 0xbe, 0x09, 0x4c, 0x2c, 0x3e, 0x0a, 0x5d, 0x45, 0xbe, 0x18, 0x46, 0x89, 0xbd, 0xdb, 0xd9, 0x1a, 0xbe, 0x2f, 0xd9, 0x59, 0xbe, 0x7b, 0x92, 0x44, 0xbe, 0x25, 0x87, 0x0f, 0xbe, 0x1d, 0x10, 0x09, 0x3e, 0xed, 0xd2, 0x2d, 0xbe, 0xc9, 0xcc, 0x29, 0x3d, 0x9e, 0x01, 0x10, 0x3e, 0xd5, 0x05, 0xfc, 0xbd, 0x38, 0xb7, 0x3e, 0x3e, 0x5a, 0x33, 0xe4, 0xbc, 0xf8, 0xa3, 0xac, 0x3d, 0x02, 0x4d, 0x26, 0x3e, 0x69, 0x6c, 0x50, 0x3c, 0x96, 0x72, 0xde, 0xbd, 0xa3, 0xd4, 0x23, 0x3e, 0xdf, 0x53, 0xb5, 0x3d, 0x3e, 0xd5, 0x95, 0x3d, 0x6f, 0x98, 0x33, 0x3d, 0xaf, 0x97, 0xf1, 0x3d, 0xb6, 0x38, 0x89, 0x3d, 0x9d, 0xee, 0xda, 0x3c, 0xfe, 0x08, 0x8e, 0xbc, 0x5f, 0x37, 0x89, 0xbc, 0x88, 0x62, 0x24, 0x3e, 0xcc, 0x36, 0x38, 0xbe, 0xe5, 0x39, 0x0d, 0xbe, 0x07, 0xaa, 0x2a, 0xbd, 0x92, 0x7a, 0xb1, 0xbd, 0xc2, 0xa5, 0x0e, 0x3e, 0x19, 0xb2, 0x2b, 0xbe, 0x79, 0xd9, 0xfb, 0x3d, 0xb4, 0x7b, 0xca, 0x3c, 0xb1, 0x16, 0x68, 0x3e, 0x9a, 0x55, 0xb5, 0x3d, 0x6b, 0xab, 0x5f, 0x3e, 0x8f, 0x37, 0xeb, 0x3d, 0xc1, 0x1c, 0x20, 0xbe, 0xd6, 0x8a, 0xf9, 0xbc, 0x02, 0x57, 0x12, 0x3e, 0xc4, 0x55, 0xaa, 0xbc, 0x48, 0x3f, 0x02, 0x3e, 0xe7, 0x16, 0x14, 0x3e, 0x0d, 0xe6, 0xad, 0xbd, 0xcf, 0x78, 0x35, 0x3e, 0x1e, 0xc0, 0x95, 0xbd, 0x51, 0xf3, 0x19, 0x3e, 0x60, 0x2b, 0xa4, 0x3d, 0x59, 0x2d, 0x12, 0x3e, 0x7a, 0x7a, 0x1c, 0xbc, 0xf6, 0x1c, 0xb2, 0x3d, 0xda, 0xa2, 0xa0, 0xbd, 0x7a, 0xa3, 0xdc, 0xba, 0x86, 0xc6, 0xab, 0x3d, 0x53, 0x8d, 0x48, 0x3e, 0xb6, 0xf1, 0xac, 0x3b, 0x85, 0x6f, 0xda, 0x3d, 0x0b, 0x6a, 0x0b, 0xbd, 0xd1, 0xd7, 0x0f, 0x3e, 0x27, 0x1d, 0x89, 0x3e, 0x93, 0x5b, 0x6e, 0x3e, 0xb6, 0x13, 0x8c, 0xbd, 0x0f, 0x5a, 0x9b, 0x3d, 0x9d, 0xc2, 0x1a, 0xbe, 0x7b, 0x6d, 0x46, 0x3d, 0xb9, 0x47, 0x5c, 0xbe, 0xde, 0x5f, 0xb3, 0x3d, 0x14, 0xe7, 0x22, 0xbd, 0x78, 0x71, 0x2f, 0x3e, 0x98, 0xe8, 0xa2, 0x3b, 0x47, 0x7d, 0xec, 0x3c, 0x80, 0xda, 0x06, 0x3d, 0xd5, 0x80, 0x45, 0x3e, 0x3a, 0x96, 0x72, 0xbd, 0x02, 0x99, 0x6d, 0x3d, 0xc5, 0x9b, 0x9e, 0xbd, 0xd2, 0xd9, 0x5a, 0xbe, 0x9e, 0xda, 0x1b, 0xbe, 0x79, 0x2f, 0x5d, 0xbe, 0xc0, 0xe6, 0xd1, 0xbd, 0xc9, 0x15, 0x5e, 0x3e, 0x81, 0x85, 0xa7, 0x3d, 0x4a, 0xac, 0x27, 0x3e, 0xb6, 0x76, 0x3f, 0xbd, 0xf8, 0x46, 0x4d, 0xbe, 0x79, 0xa9, 0x33, 0x3e, 0x77, 0xde, 0x38, 0xbe, 0x8d, 0x79, 0xed, 0x3c, 0x39, 0xda, 0x94, 0xbd, 0xf6, 0x65, 0x5a, 0x3e, 0xdc, 0xaf, 0x27, 0x3e, 0x0b, 0x6c, 0xe6, 0x3d, 0x42, 0x1f, 0x05, 0xbe, 0x7f, 0x3d, 0xb9, 0x3d, 0xb5, 0x1f, 0x0a, 0xbe, 0xcd, 0x07, 0xc0, 0xbc, 0xa8, 0xdd, 0x05, 0xbd, 0xd0, 0x52, 0x2a, 0x3e, 0x05, 0x02, 0xe6, 0x3d, 0x00, 0x4e, 0x33, 0xbe, 0xba, 0x26, 0x49, 0xbe, 0xa7, 0x12, 0xa2, 0xbc, 0xdc, 0x1c, 0x92, 0x3d, 0x32, 0x48, 0xc7, 0xbd, 0x55, 0x34, 0x9c, 0x3d, 0xa8, 0x1c, 0x88, 0xbd, 0x58, 0xc6, 0x20, 0x3e, 0xf5, 0xda, 0x89, 0x3c, 0xf3, 0x74, 0xb5, 0x3d, 0xe1, 0xe6, 0x57, 0x3d, 0x87, 0x14, 0x9c, 0xbd, 0x6f, 0x03, 0x38, 0x3e, 0x09, 0x31, 0x9e, 0x3d, 0xd1, 0xb0, 0x61, 0x3e, 0xc7, 0xae, 0xd8, 0x3c, 0x40, 0x87, 0x14, 0x3e, 0x40, 0x41, 0xe3, 0xbc, 0xcd, 0x87, 0x66, 0xbe, 0x98, 0x2f, 0x81, 0xbd, 0x27, 0xcb, 0xcf, 0xbd, 0x63, 0x9f, 0x06, 0x3e, 0x98, 0xb6, 0x5a, 0xbe, 0xf1, 0xe6, 0x19, 0xbd, 0x6b, 0x13, 0x11, 0xbe, 0xb4, 0xc9, 0x8e, 0xbd, 0xea, 0x1b, 0x8b, 0xbc, 0xb3, 0xe6, 0x27, 0x3e, 0x15, 0x41, 0x04, 0x3e, 0xdf, 0x40, 0x10, 0x3d, 0xbd, 0xb3, 0x22, 0xbe, 0xd5, 0x3b, 0xde, 0xbd, 0x0d, 0xf7, 0xfa, 0xbc, 0x7f, 0x28, 0xb2, 0xbd, 0x3d, 0x3d, 0x18, 0xbe, 0x3b, 0xb8, 0x12, 0xba, 0x14, 0x59, 0x67, 0xbd, 0x51, 0xf5, 0x80, 0x3d, 0xf0, 0x1c, 0x8a, 0xbd, 0x6b, 0x20, 0x62, 0xbc, 0x14, 0x23, 0xb0, 0xbc, 0xb8, 0x0a, 0x47, 0x3d, 0x0b, 0x69, 0xb7, 0x3b, 0x09, 0x8e, 0x08, 0x3d, 0x3b, 0xfd, 0x8b, 0xbc, 0x1f, 0x5b, 0xef, 0xbc, 0xbb, 0xd9, 0xb5, 0x3d, 0x76, 0xee, 0x21, 0xbe, 0x9c, 0x6a, 0xc4, 0x3c, 0x03, 0x61, 0xf2, 0xbd, 0xbf, 0xdb, 0x27, 0xbd, 0x9f, 0xdc, 0xc2, 0xbd, 0xfa, 0xa1, 0x7c, 0x3e, 0x0f, 0xcd, 0x11, 0x3e, 0x74, 0x28, 0xf1, 0xbc, 0x58, 0x25, 0x7e, 0x3c, 0xc4, 0xf5, 0x03, 0x3e, 0xdf, 0xf8, 0x16, 0x3e, 0x85, 0x94, 0x1c, 0x3d, 0x4b, 0xdc, 0x57, 0xbd, 0x7f, 0x85, 0x41, 0x3d, 0xae, 0xa9, 0x1b, 0xbe, 0x0f, 0xcd, 0xf7, 0x3c, 0x7d, 0x1f, 0xb5, 0xbd, 0x5a, 0x34, 0x85, 0xbd, 0x04, 0x2b, 0x30, 0xbe, 0x5a, 0xc4, 0x32, 0x3e, 0x2f, 0x26, 0x9c, 0xbc, 0x5f, 0x9b, 0x5d, 0x3e, 0x12, 0x27, 0x25, 0x3e, 0x96, 0x57, 0xfc, 0x3c, 0x35, 0x93, 0x85, 0x3e, 0x57, 0x2c, 0x4f, 0x3d, 0x2a, 0x86, 0x35, 0xbe, 0xc1, 0xfd, 0xa4, 0x3d, 0x56, 0x12, 0x65, 0x3c, 0x1d, 0x68, 0x57, 0x3e, 0x17, 0xe9, 0x31, 0xbd, 0x98, 0x00, 0x8f, 0x3e, 0x58, 0xe6, 0x29, 0xbd, 0x7b, 0xd9, 0x26, 0x3e, 0xbd, 0x31, 0x99, 0xbc, 0x9a, 0xbb, 0x9f, 0x3a, 0xfa, 0x3e, 0x46, 0x3e, 0x0a, 0xbc, 0xfc, 0x3d, 0xc8, 0x76, 0x3c, 0x3e, 0xff, 0x6b, 0x51, 0x3e, 0xc2, 0x1c, 0xac, 0xbd, 0xf2, 0x7c, 0x02, 0xbe, 0x60, 0xb5, 0x2f, 0xbe, 0x7e, 0x4b, 0xdc, 0xbd, 0x6f, 0xb1, 0x26, 0xbc, 0xd9, 0x33, 0x05, 0x3e, 0x33, 0x77, 0x81, 0x3e, 0xd6, 0x8f, 0xba, 0xbd, 0x18, 0x43, 0x7c, 0x3d, 0xdb, 0xa9, 0x29, 0xbd, 0x24, 0xdd, 0xe7, 0x3d, 0x24, 0x77, 0x58, 0x3d, 0xe8, 0xd5, 0x17, 0x3e, 0x8e, 0x28, 0x85, 0x3d, 0x2e, 0x3d, 0xe6, 0x3b, 0xb4, 0x05, 0x03, 0xbe, 0x7c, 0x96, 0x0c, 0x3e, 0x90, 0x44, 0x32, 0x3d, 0x3b, 0x68, 0x1d, 0xbe, 0xc5, 0x98, 0x8c, 0x3e, 0x45, 0x7c, 0x05, 0xbe, 0x88, 0x5b, 0xb7, 0xbd, 0xc2, 0xdc, 0x66, 0x3c, 0x22, 0x3d, 0x55, 0xbe, 0x11, 0x88, 0x11, 0xbe, 0x68, 0x18, 0xfb, 0x3d, 0xe2, 0x48, 0x3e, 0x3e, 0x75, 0x98, 0xc0, 0x3d, 0x23, 0xb3, 0x87, 0x3d, 0x7f, 0xde, 0xa2, 0x3d, 0x60, 0x07, 0xc6, 0xbc, 0xcb, 0x1f, 0x9e, 0xbd, 0x8f, 0xa1, 0x0a, 0xbe, 0x94, 0x11, 0x39, 0xbe, 0x66, 0xbc, 0x03, 0xbe, 0x9b, 0xaa, 0x2e, 0xbd, 0xa2, 0x97, 0x05, 0x3e, 0xcf, 0x0b, 0x8a, 0xbd, 0xe5, 0xd2, 0xd7, 0xbd, 0x85, 0x17, 0x6e, 0x3d, 0x36, 0x04, 0x31, 0x3e, 0xd6, 0x64, 0x15, 0xbe, 0xc1, 0x88, 0x40, 0xbc, 0x9f, 0xe8, 0x53, 0x3d, 0xb8, 0x75, 0xfc, 0x3d, 0x80, 0x3a, 0xeb, 0x3b, 0x61, 0x91, 0xf2, 0xbd, 0xc8, 0x41, 0x40, 0xbe, 0x68, 0x79, 0xd8, 0xbd, 0x07, 0x62, 0xad, 0xbc, 0xf2, 0x92, 0xc0, 0xbd, 0xc1, 0xf8, 0x51, 0xbd, 0x74, 0xef, 0x3b, 0x3e, 0x39, 0x96, 0xc3, 0x3d, 0x07, 0x2d, 0x0f, 0xbd, 0x2f, 0x98, 0x38, 0xbe, 0xc6, 0x19, 0xa9, 0xbc, 0x36, 0x07, 0x16, 0x3e, 0xf2, 0x06, 0x92, 0xbd, 0x47, 0xef, 0x43, 0x3c, 0xc3, 0xa4, 0x30, 0xbe, 0xcd, 0xb2, 0x22, 0x3e, 0xa6, 0x4b, 0x63, 0x3e, 0x33, 0x78, 0xf7, 0x3d, 0x92, 0x10, 0x77, 0x3e, 0xab, 0x08, 0x07, 0x3b, 0x64, 0x34, 0x02, 0x3e, 0xa8, 0x70, 0x15, 0x3e, 0x17, 0x7a, 0x0c, 0xbe, 0x53, 0x8d, 0x6e, 0x3e, 0x96, 0x2d, 0x05, 0xbe, 0x77, 0x52, 0x65, 0x3d, 0x5b, 0x5a, 0x38, 0x3e, 0x2b, 0x1e, 0x08, 0x3e, 0xb0, 0xcd, 0x62, 0x3e, 0x61, 0xbe, 0x7c, 0x3e, 0x01, 0xee, 0xcf, 0x3d, 0x9d, 0xb6, 0x6d, 0xbd, 0x71, 0x0d, 0x57, 0x3e, 0xfa, 0x12, 0x24, 0xbe, 0xd4, 0x31, 0xfe, 0x3c, 0x73, 0x82, 0x76, 0x3d, 0x67, 0xd4, 0x88, 0x3c, 0xdf, 0x50, 0x1b, 0xbe, 0xc5, 0x5e, 0x18, 0xbe, 0x8f, 0x5d, 0x80, 0xbd, 0xeb, 0x22, 0x28, 0xbd, 0xf9, 0x7e, 0x7f, 0xbd, 0xfd, 0x2f, 0x0e, 0x3e, 0x7f, 0x8a, 0x93, 0xbd, 0xe7, 0x3b, 0x1f, 0xbc, 0x5c, 0x65, 0xcd, 0xbd, 0xa8, 0x46, 0xb2, 0x3d, 0x22, 0xdd, 0x85, 0xbb, 0xbf, 0x62, 0x0f, 0xbe, 0x95, 0x47, 0x55, 0x3e, 0x53, 0x0b, 0x59, 0x3e, 0x99, 0xcb, 0x00, 0xbe, 0xec, 0xa7, 0xda, 0xbd, 0xb7, 0x28, 0xda, 0xbd, 0x37, 0x6d, 0xa1, 0x3d, 0xa7, 0xfe, 0xac, 0x3d, 0x1d, 0xff, 0xf6, 0x3c, 0xc6, 0xf9, 0x99, 0x3d, 0xd6, 0x6c, 0x2b, 0x3e, 0x30, 0x32, 0x01, 0xbe, 0x0e, 0xdc, 0x9a, 0xbd, 0x05, 0xbd, 0x86, 0x3e, 0x61, 0x87, 0x6b, 0xbd, 0x2b, 0xbb, 0x67, 0x3e, 0xf6, 0xd9, 0x67, 0xbe, 0x2b, 0xf5, 0x30, 0x3e, 0x56, 0xa7, 0xf2, 0x3d, 0xc5, 0x2d, 0xa1, 0xbd, 0x1d, 0x6a, 0x60, 0xbc, 0x6a, 0xe6, 0x19, 0xbe, 0xfe, 0xaa, 0xf2, 0x3d, 0x12, 0x2e, 0x06, 0x3d, 0xc7, 0x77, 0x8f, 0xbd, 0xd1, 0x5a, 0x6a, 0xbe, 0xc5, 0xde, 0xff, 0xbd, 0x6d, 0x4c, 0xf4, 0xbd, 0xd3, 0x12, 0x53, 0x3e, 0xee, 0xa3, 0x37, 0xbc, 0x78, 0x72, 0xb4, 0x3d, 0x26, 0xaa, 0x12, 0xbe, 0x1f, 0x83, 0x06, 0xbe, 0x91, 0x2a, 0x7a, 0x3d, 0xc7, 0x38, 0x4c, 0x3e, 0x62, 0x4f, 0x0b, 0x3e, 0x95, 0x0b, 0x39, 0xbd, 0xcc, 0x38, 0xc7, 0x3d, 0xdb, 0x90, 0x1a, 0x3d, 0x89, 0x7d, 0x48, 0x3c, 0x41, 0xbc, 0xd7, 0xbd, 0xc4, 0xa9, 0xa3, 0x3d, 0xed, 0x6d, 0xf8, 0xbd, 0x8c, 0x00, 0x23, 0xbd, 0x3b, 0x38, 0x8a, 0xbd, 0xe8, 0xe2, 0xb2, 0x3d, 0x7e, 0xfd, 0xd6, 0xbd, 0x84, 0x6a, 0x0c, 0xbd, 0x23, 0x34, 0x87, 0x3d, 0xb5, 0x2b, 0x37, 0xbd, 0xc4, 0x10, 0x2b, 0x3e, 0xeb, 0x93, 0x42, 0xbe, 0x15, 0x25, 0x08, 0x3e, 0x16, 0x5a, 0x2c, 0x3e, 0x77, 0x13, 0x94, 0x3e, 0xad, 0x29, 0x2b, 0x3d, 0x9c, 0x82, 0x29, 0x3e, 0x93, 0xfd, 0xc4, 0x3d, 0x2d, 0xd1, 0x65, 0x3c, 0xfa, 0x19, 0x4b, 0x3e, 0x3a, 0x07, 0x89, 0x3e, 0x7b, 0xce, 0x45, 0x3e, 0xf5, 0x5c, 0x37, 0x3e, 0x31, 0x36, 0x23, 0xbe, 0xdf, 0x10, 0x53, 0x3e, 0xd3, 0x7b, 0x1f, 0xbe, 0x5b, 0x8d, 0x27, 0xbc, 0x3a, 0x5a, 0x95, 0x3d, 0xb9, 0x85, 0x56, 0x3e, 0x79, 0xf5, 0xcb, 0xbd, 0x5f, 0xe4, 0x81, 0x3e, 0xa3, 0x20, 0x35, 0xbe, 0xbc, 0xd3, 0x17, 0x3e, 0x4f, 0x01, 0x0d, 0xbd, 0x7c, 0x89, 0x5f, 0xbe, 0x4a, 0xa7, 0x66, 0x3e, 0x2e, 0xd0, 0x07, 0xbe, 0xcf, 0xcf, 0x31, 0x3e, 0x3d, 0x69, 0xa3, 0x3d, 0xa1, 0xa3, 0x5c, 0xbe, 0xac, 0x36, 0x35, 0x3d, 0x23, 0xde, 0xb7, 0xbd, 0x1c, 0x5e, 0x0b, 0x3e, 0x3c, 0xe1, 0xf7, 0xbb, 0x39, 0xc9, 0x33, 0xbe, 0x8c, 0x91, 0xf1, 0x3d, 0x71, 0xbc, 0xd9, 0x3d, 0x87, 0x37, 0xd2, 0x3d, 0x82, 0x5a, 0x2d, 0x3c, 0x49, 0xe8, 0x6e, 0x3e, 0xf7, 0x19, 0x7e, 0xbe, 0x37, 0xbb, 0x8b, 0x3c, 0x3c, 0xde, 0x3b, 0xbe, 0xab, 0xe6, 0x75, 0xbe, 0x8e, 0x4b, 0xbc, 0xbd, 0xc4, 0xc9, 0xa1, 0xbd, 0xc1, 0x18, 0x4d, 0x3e, 0x0b, 0x8e, 0x4f, 0x3e, 0xd1, 0x4a, 0x15, 0xbd, 0xb5, 0xfd, 0x3d, 0xbe, 0x93, 0x7c, 0x8f, 0x3d, 0x61, 0x70, 0x2f, 0xbd, 0xbe, 0xe7, 0x9b, 0xbc, 0x10, 0xae, 0xea, 0xbc, 0x02, 0x38, 0x88, 0xbd, 0xb6, 0x8c, 0xd7, 0xbd, 0xea, 0x98, 0x45, 0x3e, 0xd3, 0xcb, 0x87, 0xbd, 0x6d, 0xcf, 0xc8, 0x3b, 0xd7, 0x02, 0xf4, 0x3c, 0x24, 0x79, 0xba, 0xbd, 0x25, 0x15, 0x13, 0x3e, 0x65, 0xf3, 0x05, 0x3e, 0x5f, 0x9f, 0x82, 0x3c, 0x70, 0x94, 0x4b, 0xbd, 0x01, 0xc3, 0x12, 0x3d, 0x24, 0x1c, 0xf6, 0x3d, 0x83, 0xc5, 0x96, 0x3d, 0x08, 0xfe, 0xcf, 0xbc, 0xd4, 0x1e, 0xd8, 0x3d, 0x99, 0x87, 0xc8, 0x3d, 0xe4, 0xc5, 0x21, 0x3e, 0x89, 0xeb, 0x38, 0x3e, 0xba, 0x56, 0xb9, 0xbd, 0x7b, 0xed, 0x9f, 0x3c, 0xd2, 0x3d, 0x7a, 0x3d, 0x9a, 0xba, 0x59, 0x3e, 0x9f, 0xea, 0x35, 0xbe, 0x3e, 0xb4, 0x18, 0xbc, 0xe9, 0x75, 0xc5, 0xbd, 0x5b, 0xac, 0x36, 0xbc, 0x90, 0xfa, 0x0d, 0xbe, 0x8d, 0xca, 0x0a, 0xbe, 0x26, 0x02, 0xe6, 0xbd, 0xce, 0xbf, 0x29, 0xbe, 0xb4, 0xe4, 0x65, 0x3c, 0x10, 0xa9, 0x11, 0x3e, 0x60, 0x1a, 0xef, 0xbd, 0x89, 0x5d, 0x07, 0xbe, 0xa6, 0x2a, 0x9a, 0x3c, 0xeb, 0x23, 0xc2, 0xbd, 0x82, 0x5b, 0xea, 0xbd, 0x01, 0xd0, 0x3a, 0x3e, 0xf3, 0x35, 0x8d, 0x3e, 0x54, 0xe9, 0x2d, 0x3c, 0x9e, 0x81, 0xd1, 0x3d, 0x74, 0x74, 0x4f, 0x3d, 0x44, 0x6e, 0x9d, 0x3d, 0xc7, 0x04, 0x9e, 0xbd, 0xa3, 0xdf, 0x35, 0x3e, 0xea, 0x50, 0x94, 0x3d, 0xa4, 0x40, 0x3f, 0x3e, 0xb1, 0xf5, 0x2f, 0xbe, 0x63, 0xb1, 0x49, 0xbd, 0x2c, 0xeb, 0x05, 0x3a, 0x1c, 0x52, 0x3d, 0xbe, 0xf2, 0xfe, 0x8c, 0x3d, 0xf8, 0x5c, 0x16, 0xbe, 0xec, 0x97, 0x8e, 0x3b, 0x81, 0xbb, 0x3f, 0xbe, 0xad, 0xee, 0xa5, 0x3d, 0x40, 0xf1, 0xa5, 0xbd, 0xd6, 0x76, 0x0e, 0xbe, 0x96, 0x08, 0x06, 0x3e, 0xaf, 0x31, 0x45, 0xbe, 0xd0, 0xdb, 0x7f, 0x3e, 0x11, 0x09, 0xd8, 0x3d, 0xa1, 0x32, 0x9e, 0xbe, 0x32, 0x94, 0x5b, 0xbe, 0x7c, 0xa4, 0xd1, 0xbd, 0xb8, 0x40, 0x47, 0x3e, 0xff, 0xa7, 0x94, 0x3c, 0x8d, 0xf2, 0xd1, 0xbc, 0x73, 0xbf, 0x26, 0xbe, 0x60, 0xa7, 0x26, 0x3e, 0xa0, 0x5d, 0x52, 0x3e, 0xfe, 0xf0, 0x5c, 0xbe, 0x8c, 0x3b, 0xce, 0x3d, 0x08, 0xf9, 0x01, 0xbe, 0x0a, 0x8f, 0x16, 0x3c, 0xb1, 0x68, 0xaa, 0x3e, 0xb3, 0x8e, 0xf2, 0xbd, 0x59, 0x17, 0xb4, 0x3d, 0xac, 0xb9, 0x72, 0xbe, 0x0d, 0x86, 0xa7, 0xbd, 0xaf, 0xd1, 0x1b, 0x3e, 0x42, 0xe3, 0xfa, 0x3d, 0x39, 0xd5, 0x5f, 0x3e, 0x44, 0x90, 0xc8, 0x3c, 0xad, 0xf9, 0x66, 0x3e, 0xc4, 0x9f, 0x83, 0xbd, 0x88, 0x34, 0x89, 0xbc, 0x89, 0x2e, 0x62, 0x3d, 0xcd, 0x86, 0xc2, 0xbc, 0xb6, 0xab, 0x06, 0x3e, 0x45, 0xe2, 0xc5, 0x3d, 0x80, 0x40, 0x90, 0x3d, 0x39, 0xf4, 0x1c, 0x3e, 0xb9, 0x6e, 0x22, 0xbe, 0x7c, 0x3b, 0x8c, 0x3e, 0x79, 0x78, 0x98, 0xbd, 0x8d, 0x3e, 0x95, 0xbd, 0x14, 0xed, 0x1e, 0x3d, 0x44, 0xdd, 0x46, 0x3d, 0xdc, 0xd8, 0x7d, 0x3e, 0x80, 0x9c, 0x7e, 0xbe, 0x9e, 0xc9, 0x16, 0xbe, 0x0a, 0xcd, 0x23, 0xbe, 0xfd, 0x62, 0x45, 0xbe, 0x08, 0x82, 0x67, 0x3e, 0x72, 0x1f, 0x06, 0x3e, 0x95, 0xee, 0x4b, 0x3e, 0x6e, 0x5d, 0x62, 0xbe, 0xdb, 0x72, 0xe3, 0xbd, 0xcc, 0x28, 0x04, 0xbe, 0x71, 0x53, 0x49, 0xbe, 0x52, 0x95, 0x4a, 0xbe, 0x0f, 0xfc, 0xa8, 0xbd, 0x2e, 0xfe, 0xff, 0xff, 0x10, 0x00, 0x00, 0x00, 0x04, 0x00, 0x00, 0x00, 0x1c, 0x00, 0x00, 0x00, 0x38, 0x00, 0x00, 0x00, 0x04, 0x00, 0x00, 0x00, 0x08, 0x00, 0x00, 0x00, 0x03, 0x00, 0x00, 0x00, 0x03, 0x00, 0x00, 0x00, 0x08, 0x00, 0x00, 0x00, 0x1a, 0x00, 0x00, 0x00, 0x73, 0x65, 0x71, 0x75, 0x65, 0x6e, 0x74, 0x69, 0x61, 0x6c, 0x2f, 0x63, 0x6f, 0x6e, 0x76, 0x32, 0x64, 0x5f, 0x31, 0x2f, 0x43, 0x6f, 0x6e, 0x76, 0x32, 0x44, 0x00, 0x00, 0x28, 0xfe, 0xff, 0xff, 0x52, 0xff, 0xff, 0xff, 0x04, 0x00, 0x00, 0x00, 0x20, 0x00, 0x00, 0x00, 0x3a, 0xd8, 0xf7, 0xbc, 0x24, 0x63, 0x58, 0xbc, 0xb6, 0xeb, 0x2f, 0x3d, 0xb7, 0x4e, 0x7f, 0x3d, 0x2f, 0xf9, 0x29, 0x3d, 0x42, 0x43, 0xdf, 0x3d, 0x72, 0x60, 0x31, 0x3c, 0x47, 0x7a, 0x4b, 0x3c, 0xa6, 0xfe, 0xff, 0xff, 0x10, 0x00, 0x00, 0x00, 0x03, 0x00, 0x00, 0x00, 0x10, 0x00, 0x00, 0x00, 0x6c, 0x00, 0x00, 0x00, 0x01, 0x00, 0x00, 0x00, 0x08, 0x00, 0x00, 0x00, 0x5b, 0x00, 0x00, 0x00, 0x73, 0x65, 0x71, 0x75, 0x65, 0x6e, 0x74, 0x69, 0x61, 0x6c, 0x2f, 0x63, 0x6f, 0x6e, 0x76, 0x32, 0x64, 0x2f, 0x42, 0x69, 0x61, 0x73, 0x41, 0x64, 0x64, 0x3b, 0x73, 0x65, 0x71, 0x75, 0x65, 0x6e, 0x74, 0x69, 0x61, 0x6c, 0x2f, 0x63, 0x6f, 0x6e, 0x76, 0x32, 0x64, 0x2f, 0x43, 0x6f, 0x6e, 0x76, 0x32, 0x44, 0x3b, 0x73, 0x65, 0x71, 0x75, 0x65, 0x6e, 0x74, 0x69, 0x61, 0x6c, 0x2f, 0x63, 0x6f, 0x6e, 0x76, 0x32, 0x64, 0x2f, 0x42, 0x69, 0x61, 0x73, 0x41, 0x64, 0x64, 0x2f, 0x52, 0x65, 0x61, 0x64, 0x56, 0x61, 0x72, 0x69, 0x61, 0x62, 0x6c, 0x65, 0x4f, 0x70, 0x00, 0x2c, 0xff, 0xff, 0xff, 0x00, 0x00, 0x06, 0x00, 0x08, 0x00, 0x04, 0x00, 0x06, 0x00, 0x00, 0x00, 0x04, 0x00, 0x00, 0x00, 0x20, 0x00, 0x00, 0x00, 0xac, 0x0b, 0x38, 0x3d, 0xec, 0x51, 0x28, 0x3c, 0x3a, 0xfd, 0xf3, 0xbb, 0xd4, 0x0e, 0x7e, 0x3d, 0xc5, 0x71, 0xa6, 0x3c, 0xd7, 0x3a, 0xdd, 0x3c, 0x5b, 0x8f, 0x8b, 0x3c, 0x91, 0xc2, 0x7c, 0x3c, 0x5a, 0xff, 0xff, 0xff, 0x10, 0x00, 0x00, 0x00, 0x02, 0x00, 0x00, 0x00, 0x10, 0x00, 0x00, 0x00, 0x90, 0x00, 0x00, 0x00, 0x01, 0x00, 0x00, 0x00, 0x08, 0x00, 0x00, 0x00, 0x7a, 0x00, 0x00, 0x00, 0x73, 0x65, 0x71, 0x75, 0x65, 0x6e, 0x74, 0x69, 0x61, 0x6c, 0x2f, 0x63, 0x6f, 0x6e, 0x76, 0x32, 0x64, 0x5f, 0x31, 0x2f, 0x42, 0x69, 0x61, 0x73, 0x41, 0x64, 0x64, 0x3b, 0x73, 0x65, 0x71, 0x75, 0x65, 0x6e, 0x74, 0x69, 0x61, 0x6c, 0x2f, 0x63, 0x6f, 0x6e, 0x76, 0x32, 0x64, 0x2f, 0x43, 0x6f, 0x6e, 0x76, 0x32, 0x44, 0x3b, 0x73, 0x65, 0x71, 0x75, 0x65, 0x6e, 0x74, 0x69, 0x61, 0x6c, 0x2f, 0x63, 0x6f, 0x6e, 0x76, 0x32, 0x64, 0x5f, 0x31, 0x2f, 0x43, 0x6f, 0x6e, 0x76, 0x32, 0x44, 0x3b, 0x73, 0x65, 0x71, 0x75, 0x65, 0x6e, 0x74, 0x69, 0x61, 0x6c, 0x2f, 0x63, 0x6f, 0x6e, 0x76, 0x32, 0x64, 0x5f, 0x31, 0x2f, 0x42, 0x69, 0x61, 0x73, 0x41, 0x64, 0x64, 0x2f, 0x52, 0x65, 0x61, 0x64, 0x56, 0x61, 0x72, 0x69, 0x61, 0x62, 0x6c, 0x65, 0x4f, 0x70, 0x00, 0x00, 0x04, 0x00, 0x06, 0x00, 0x04, 0x00, 0x00, 0x00, 0x00, 0x00, 0x0e, 0x00, 0x14, 0x00, 0x04, 0x00, 0x00, 0x00, 0x08, 0x00, 0x0c, 0x00, 0x10, 0x00, 0x0e, 0x00, 0x00, 0x00, 0x10, 0x00, 0x00, 0x00, 0x01, 0x00, 0x00, 0x00, 0x1c, 0x00, 0x00, 0x00, 0x2c, 0x00, 0x00, 0x00, 0x04, 0x00, 0x00, 0x00, 0x01, 0x00, 0x00, 0x00, 0x32, 0x00, 0x00, 0x00, 0x0c, 0x00, 0x00, 0x00, 0x01, 0x00, 0x00, 0x00, 0x0c, 0x00, 0x00, 0x00, 0x63, 0x6f, 0x6e, 0x76, 0x32, 0x64, 0x5f, 0x69, 0x6e, 0x70, 0x75, 0x74, 0x00, 0x00, 0x00, 0x00, 0xfc, 0xff, 0xff, 0xff, 0x04, 0x00, 0x04, 0x00, 0x04, 0x00, 0x00, 0x00
};

const int model_tflite_len = 8496;

#endif  // MODEL_H
